{
  "<|endoftext|>": 0,
  "!": 1,
  "\"": 2,
  "#": 3,
  "$": 4,
  "%": 5,
  "&": 6,
  "'": 7,
  "(": 8,
  ")": 9,
  "*": 10,
  "+": 11,
  ",": 12,
  "-": 13,
  ".": 14,
  "/": 15,
  "0": 16,
  "1": 17,
  "2": 18,
  "3": 19,
  "4": 20,
  "5": 21,
  "6": 22,
  "7": 23,
  "8": 24,
  "9": 25,
  ":": 26,
  ";": 27,
  "<": 28,
  "=": 29,
  ">": 30,
  "?": 31,
  "@": 32,
  "A": 33,
  "B": 34,
  "C": 35,
  "D": 36,
  "E": 37,
  "F": 38,
  "G": 39,
  "H": 40,
  "I": 41,
  "J": 42,
  "K": 43,
  "L": 44,
  "M": 45,
  "N": 46,
  "O": 47,
  "P": 48,
  "Q": 49,
  "R": 50,
  "S": 51,
  "T": 52,
  "U": 53,
  "V": 54,
  "W": 55,
  "X": 56,
  "Y": 57,
  "Z": 58,
  "[": 59,
  "\\": 60,
  "]": 61,
  "^": 62,
  "_": 63,
  "`": 64,
  "a": 65,
  "b": 66,
  "c": 67,
  "d": 68,
  "e": 69,
  "f": 70,
  "g": 71,
  "h": 72,
  "i": 73,
  "j": 74,
  "k": 75,
  "l": 76,
  "m": 77,
  "n": 78,
  "o": 79,
  "p": 80,
  "q": 81,
  "r": 82,
  "s": 83,
  "t": 84,
  "u": 85,
  "v": 86,
  "w": 87,
  "x": 88,
  "y": 89,
  "z": 90,
  "{": 91,
  "|": 92,
  "}": 93,
  "~": 94,
  "¡": 95,
  "¢": 96,
  "£": 97,
  "¤": 98,
  "¥": 99,
  "¦": 100,
  "§": 101,
  "¨": 102,
  "©": 103,
  "ª": 104,
  "«": 105,
  "¬": 106,
  "®": 107,
  "¯": 108,
  "°": 109,
  "±": 110,
  "²": 111,
  "³": 112,
  "´": 113,
  "µ": 114,
  "¶": 115,
  "·": 116,
  "¸": 117,
  "¹": 118,
  "º": 119,
  "»": 120,
  "¼": 121,
  "½": 122,
  "¾": 123,
  "¿": 124,
  "À": 125,
  "Á": 126,
  "Â": 127,
  "Ã": 128,
  "Ä": 129,
  "Å": 130,
  "Æ": 131,
  "Ç": 132,
  "È": 133,
  "É": 134,
  "Ê": 135,
  "Ë": 136,
  "Ì": 137,
  "Í": 138,
  "Î": 139,
  "Ï": 140,
  "Ð": 141,
  "Ñ": 142,
  "Ò": 143,
  "Ó": 144,
  "Ô": 145,
  "Õ": 146,
  "Ö": 147,
  "×": 148,
  "Ø": 149,
  "Ù": 150,
  "Ú": 151,
  "Û": 152,
  "Ü": 153,
  "Ý": 154,
  "Þ": 155,
  "ß": 156,
  "à": 157,
  "á": 158,
  "â": 159,
  "ã": 160,
  "ä": 161,
  "å": 162,
  "æ": 163,
  "ç": 164,
  "è": 165,
  "é": 166,
  "ê": 167,
  "ë": 168,
  "ì": 169,
  "í": 170,
  "î": 171,
  "ï": 172,
  "ð": 173,
  "ñ": 174,
  "ò": 175,
  "ó": 176,
  "ô": 177,
  "õ": 178,
  "ö": 179,
  "÷": 180,
  "ø": 181,
  "ù": 182,
  "ú": 183,
  "û": 184,
  "ü": 185,
  "ý": 186,
  "þ": 187,
  "ÿ": 188,
  "Ā": 189,
  "ā": 190,
  "Ă": 191,
  "ă": 192,
  "Ą": 193,
  "ą": 194,
  "Ć": 195,
  "ć": 196,
  "Ĉ": 197,
  "ĉ": 198,
  "Ċ": 199,
  "ċ": 200,
  "Č": 201,
  "č": 202,
  "Ď": 203,
  "ď": 204,
  "Đ": 205,
  "đ": 206,
  "Ē": 207,
  "ē": 208,
  "Ĕ": 209,
  "ĕ": 210,
  "Ė": 211,
  "ė": 212,
  "Ę": 213,
  "ę": 214,
  "Ě": 215,
  "ě": 216,
  "Ĝ": 217,
  "ĝ": 218,
  "Ğ": 219,
  "ğ": 220,
  "Ġ": 221,
  "ġ": 222,
  "Ģ": 223,
  "ģ": 224,
  "Ĥ": 225,
  "ĥ": 226,
  "Ħ": 227,
  "ħ": 228,
  "Ĩ": 229,
  "ĩ": 230,
  "Ī": 231,
  "ī": 232,
  "Ĭ": 233,
  "ĭ": 234,
  "Į": 235,
  "į": 236,
  "İ": 237,
  "ı": 238,
  "Ĳ": 239,
  "ĳ": 240,
  "Ĵ": 241,
  "ĵ": 242,
  "Ķ": 243,
  "ķ": 244,
  "ĸ": 245,
  "Ĺ": 246,
  "ĺ": 247,
  "Ļ": 248,
  "ļ": 249,
  "Ľ": 250,
  "ľ": 251,
  "Ŀ": 252,
  "ŀ": 253,
  "Ł": 254,
  "ł": 255,
  "Ń": 256,
  "ĠÐ": 257,
  "Ð¾": 258,
  "Ð°": 259,
  "Ðµ": 260,
  "ÑĤ": 261,
  "Ð¸": 262,
  "ÑĢ": 263,
  "Ð¾Ð": 264,
  "Ñģ": 265,
  "Ð½": 266,
  "Ð°Ð": 267,
  "Ñĥ": 268,
  "er": 269,
  "me": 270,
  "th": 271,
  "ers": 272,
  "oth": 273,
  "others": 274,
  "Ð»": 275,
  "ÑĮ": 276,
  "Ðº": 277,
  "ĠÐ¿": 278,
  "Ñı": 279,
  "Ñĭ": 280,
  "ĠÐ½": 281,
  "Ñĩ": 282,
  "ĠĠ": 283,
  "ÐµÐ": 284,
  "ĠÐ²": 285,
  "ÑĤÐ¾": 286,
  "ĠÑģ": 287,
  "Ð´": 288,
  "Ġ'": 289,
  "Ð¼": 290,
  "ĠÐº": 291,
  "ÑĤÑĮ": 292,
  "ĠÑĤ": 293,
  "Ð²": 294,
  "ÐĿ": 295,
  "ÐµÑĤ": 296,
  "ĠÐ¸": 297,
  "ÐµÑĢ": 298,
  "ĠÐ¾": 299,
  "Ð°Ðº": 300,
  "ĠÑ": 301,
  "ĠÐ´": 302,
  "ĠÐ¼": 303,
  "ÐµÐ½": 304,
  "Ð½Ð¾": 305,
  "ÑĪ": 306,
  "Ð°Ð»": 307,
  "ĠÐ¿ÑĢ": 308,
  "Ð¾Ð²": 309,
  "Ð¿": 310,
  "Ñħ": 311,
  "Ð¾Ð»": 312,
  "Ñİ": 313,
  "ÑģÑĤ": 314,
  "ÐĲ": 315,
  "ĠĠĠĠ": 316,
  "Ð¾Ð´": 317,
  "ĠÐ±": 318,
  "Ð¾Ð¼": 319,
  "':": 320,
  "ĠÑĩ": 321,
  "ĠÐ½Ðµ": 322,
  "Ð»Ð¸": 323,
  "Ð°Ð¼": 324,
  "Ð±": 325,
  "ĠÐ·": 326,
  "in": 327,
  "ĠÑĢ": 328,
  "Ð³": 329,
  "Ð°Ð½": 330,
  "Ð¾ÑĢ": 331,
  "ĠÐ½Ð°": 332,
  "Ð¾Ð³": 333,
  "Ð¸Ð½": 334,
  "ÐµÐ»": 335,
  "Ð¾ÑĤ": 336,
  "ĠÑĥ": 337,
  "Ð·": 338,
  "ĠÐµ": 339,
  "Ð¾Ñģ": 340,
  "ÐµÐ¼": 341,
  "Ð¢": 342,
  "Ð¹": 343,
  "Ð°ÑĤÑĮ": 344,
  "Ð¾Ð½": 345,
  "Ð¸ÑĤ": 346,
  "ÐŁ": 347,
  "ÐĿÑĥ": 348,
  "Ð¾Ð¶": 349,
  "ÑģÑı": 350,
  "Ð°Ð²": 351,
  "Ð¾Ð¹": 352,
  "te": 353,
  "ĠÑį": 354,
  "',": 355,
  "Ð¾Ð±": 356,
  "Ñī": 357,
  "Ñĳ": 358,
  "Ð°ÑĤ": 359,
  "ÐĴ": 360,
  "Ð½Ñĭ": 361,
  "Ð¶": 362,
  "Ðĺ": 363,
  "ĠÑĩÑĤÐ¾": 364,
  "xt": 365,
  "pe": 366,
  "ÐºÐ¸": 367,
  "text": 368,
  "Ð°Ð´": 369,
  "Ð°Ð·": 370,
  "Ð¸Ð»": 371,
  "Ð½Ð°": 372,
  "ty": 373,
  "Ð°Ñģ": 374,
  "ÐĶ": 375,
  "Ðļ": 376,
  "ĠÐ°": 377,
  "Ð¾Ð»ÑĮ": 378,
  "Ðŀ": 379,
  "type": 380,
  "{'": 381,
  "ĠÐºÐ°Ðº": 382,
  "'}": 383,
  "Ð½Ð¸": 384,
  "ÑĨ": 385,
  "Ð°ÑĢ": 386,
  "ĠÐ³": 387,
  "ĠÐ¿Ð¾": 388,
  "ht": 389,
  "ÐºÐ°": 390,
  "Ð¡": 391,
  "ÐµÐ¹": 392,
  "Ð°Ð¹": 393,
  "ÑĥÐ´": 394,
  "ÐµÐ´": 395,
  "ÑĦ": 396,
  "][": 397,
  "Ð¸Ñģ": 398,
  "Ð¸Ð¼": 399,
  "ÑĢÑĥ": 400,
  "Ð»Ñı": 401,
  "Ð¾Ðº": 402,
  "Ðľ": 403,
  "lin": 404,
  "ĠÐµÑģ": 405,
  "ĠÐ»": 406,
  "ÐµÐ½Ð¸": 407,
  "ĠÑįÑĤÐ¾": 408,
  "link": 409,
  "tp": 410,
  "Ð°ÐµÑĤ": 411,
  "//": 412,
  "ĠÐ¾ÑĤ": 413,
  "ĠÑģÑĤ": 414,
  "Ð°Ð±": 415,
  "ĠÐ±Ñĭ": 416,
  "ÐµÑĪ": 417,
  "ĠÑı": 418,
  "Ð¸ÑĤÑĮ": 419,
  "http": 420,
  "://": 421,
  "Ð¯": 422,
  "ÑĥÑĤ": 423,
  "ĠĠĠĠĠĠĠĠ": 424,
  "ÐµÐ·": 425,
  "ĠÑĤÐ°Ðº": 426,
  "https": 427,
  "ÑĢÐ¸": 428,
  "co": 429,
  "ÑĭÐµ": 430,
  "ĠÐ²Ñģ": 431,
  "ÐµÑģ": 432,
  "Ġ1": 433,
  "ÐµÐ³": 434,
  "ĠÑĦ": 435,
  "ÐµÐ±": 436,
  "ÐµÐº": 437,
  "ÐĶÐ°": 438,
  "Ð¾Ð³Ð¾": 439,
  "ÑĤÐ¾ÑĢ": 440,
  "Ð°Ð¿": 441,
  "ÐºÐ¾": 442,
  "ĠÐ¶": 443,
  "Ð¾Ð¿": 444,
  "][{'": 445,
  "Ð¸Ðº": 446,
  "Ġ=": 447,
  "Ð£": 448,
  "ĠĠĠ": 449,
  "Ð´Ð°": 450,
  "Ð¾Ñĩ": 451,
  "ĠÑĤÐ¾": 452,
  "Ð¾Ð¶Ð½Ð¾": 453,
  "ĠÐ²Ñĭ": 454,
  "ĠÐµÑģÑĤÑĮ": 455,
  "Ð°Ñİ": 456,
  "Ð¸Ð²": 457,
  "Ð´Ðµ": 458,
  "ÐĿÐ¾": 459,
  "ÐĿÐµ": 460,
  "Ðķ": 461,
  "'}]": 462,
  "ÐŃ": 463,
  "ĠÐ¾Ð±": 464,
  "'},": 465,
  "ÑĥÑĩ": 466,
  "ĠÐ¿ÐµÑĢ": 467,
  "Ð¾ÑģÑĤÐ¾": 468,
  "re": 469,
  "ÑĤÐ¸": 470,
  "ÐµÑĥ": 471,
  "ÑĨÐ¸": 472,
  "ĠÐ¿Ð¾Ð´": 473,
  "com": 474,
  "ĠÑĤÐ°Ð¼": 475,
  "ĠÑħ": 476,
  "Ð°Ð»ÑĮ": 477,
  "Ð¾Ð»ÑĮÐºÐ¾": 478,
  "ÐµÑĪÑĮ": 479,
  "ÑĢÐ°": 480,
  "Ð¾Ð·": 481,
  "Ð°Ð¶": 482,
  "ĠÐ¿ÑĢÐ¾": 483,
  "Ð§": 484,
  "ÐµÑĥÑĭÐµ": 485,
  "ÐºÑĥ": 486,
  "Ð°Ð½Ð¸": 487,
  "Ġ{'": 488,
  "ÐµÐ½Ñı": 489,
  "ĠÐ¶Ðµ": 490,
  "Ð½Ðµ": 491,
  "st": 492,
  "ÐµÐ³Ð¾": 493,
  "Ð½ÑĭÐ¹": 494,
  "ut": 495,
  "ÐŃÑĤÐ¾": 496,
  "ru": 497,
  "ĠÑĤÑĭ": 498,
  "ĠÐ¸Ð·": 499,
  "ÐµÑģÑĤ": 500,
  "ÐļÐ°Ðº": 501,
  "ÑĥÐ¼": 502,
  "le": 503,
  "int": 504,
  "or": 505,
  "ĠÑĢÐ°Ð·": 506,
  "Ð°Ð´Ð¾": 507,
  "Ð°Ñı": 508,
  "Ð½ÑĭÐµ": 509,
  "ĠÐ½Ð¾": 510,
  "ĠÐ±ÑĥÐ´": 511,
  "ĠÐ½ÐµÑĤ": 512,
  "Ð¸ÑĢ": 513,
  "Ð»Ð¾": 514,
  "ÐµÐ¿": 515,
  "Ġ-": 516,
  "ĠÐ²ÑĢ": 517,
  "ĠÑģÐº": 518,
  "ÐµÐ»ÑĮ": 519,
  "ww": 520,
  "ÑĭÐ²": 521,
  "an": 522,
  "pr": 523,
  "ÑĭÐ¹": 524,
  "Ð¾Ð´Ðµ": 525,
  "Ð°Ñĩ": 526,
  "ĠÐµÑī": 527,
  "00": 528,
  "ĠÐ¼ÐµÐ½Ñı": 529,
  "ĠÐ·Ð½Ð°": 530,
  "ÐµÐ²": 531,
  "Ð¸Ð´": 532,
  "Ð¸Ñĩ": 533,
  "Ð°Ð±Ð¾ÑĤ": 534,
  "Ð¸ÑĪ": 535,
  "ĠÐ²ÑģÐµ": 536,
  "Ġ0": 537,
  "ÐµÑĩ": 538,
  "ÑĢÐ°Ð²": 539,
  "ÑĥÑİ": 540,
  "ÐµÐ½ÑĮ": 541,
  "Ð¾ÑĢÐ¼": 542,
  "ÑĥÑģ": 543,
  "ÑĪÐµ": 544,
  "ĠÑĪ": 545,
  "ha": 546,
  "ĠÐ¿Ð¾Ð»": 547,
  "Ð°Ñħ": 548,
  "ĠÐ´Ð»Ñı": 549,
  "ÐµÐ½Ð¸Ðµ": 550,
  "ĠÐ¼Ð¾Ð¶Ð½Ð¾": 551,
  "Ġ2": 552,
  "ÐĹ": 553,
  "Ð»Ñİ": 554,
  "ĠÐ¾Ð´": 555,
  "ĠÐ½Ñĥ": 556,
  "Ð¾Ð³Ð´Ð°": 557,
  "Ġi": 558,
  "ĠÐ½Ð°Ð´Ð¾": 559,
  "ĠÐ¿ÑĢÐ¾ÑģÑĤÐ¾": 560,
  "ĠĠĠĠĠĠĠ": 561,
  "Ðĳ": 562,
  "ÐŁÑĢ": 563,
  "ÑıÑĤ": 564,
  "ÑħÐ¾Ð´": 565,
  "ÐµÐ½ÑĤ": 566,
  "Ð½Ð¾Ðµ": 567,
  "Ð»Ð°": 568,
  "Ð°Ð»Ð¸": 569,
  "ĠÐµÑīÑĳ": 570,
  "ĠÐ¿Ð¾Ð½": 571,
  "Ð¢Ð°Ð¼": 572,
  "Ð¸Ðµ": 573,
  "ĠÑģÐ»": 574,
  "ĠÑĤÐµÐ±": 575,
  "Ð¸Ð¿": 576,
  "ĠÐ¾Ð½": 577,
  "ĠÐ´Ð°": 578,
  "at": 579,
  "Ð¥": 580,
  "Ð°Ð³": 581,
  "Ġ(": 582,
  "ĠÑĢÐ°Ð±Ð¾ÑĤ": 583,
  "Ð¸Ñħ": 584,
  "Ð¾Ðµ": 585,
  "ĠÐ¸Ð½": 586,
  "ĠÑĤÐ¾Ð»ÑĮÐºÐ¾": 587,
  "ĠÐ¿Ð¾Ñģ": 588,
  "Ð°ÐµÑĤÑģÑı": 589,
  "ap": 590,
  "Ġs": 591,
  "ĠÑĨ": 592,
  "Ð¾ÑģÑĤ": 593,
  "ÐºÐµ": 594,
  "ĠÐ·Ð°": 595,
  "ÐµÐ¼Ñĥ": 596,
  "ÑĢÑĥÐ³": 597,
  "ÑĤÐµÑĢ": 598,
  "Ð½Ð¾Ð³Ð¾": 599,
  "ÑīÐµ": 600,
  "ÐķÑģ": 601,
  "ĠÐ±ÑĥÐ´ÐµÑĤ": 602,
  "Ð°Ð¼Ð¸": 603,
  "ag": 604,
  "ĠÑģÐ¿": 605,
  "']": 606,
  "ĠÐ²Ð¾": 607,
  "ĠÐ¸Ð»Ð¸": 608,
  "Ð¾Ð¶ÐµÑĤ": 609,
  "al": 610,
  "ĠÐ´ÐµÐ»": 611,
  "ÐĿÐ°": 612,
  "âĢ": 613,
  "ĠÑģÐ¼": 614,
  "Ġ',": 615,
  "ÐµÐ½Ð¸Ñı": 616,
  "ĠÑįÑĤ": 617,
  "ĠÐŁ": 618,
  "Ð²ÐµÑĤ": 619,
  "Ð¢Ð°Ðº": 620,
  "ĠÐµÑģÐ»Ð¸": 621,
  "ÑĢÐ°Ð½": 622,
  "Ð½Ð°Ñı": 623,
  "it": 624,
  "Ð¾Ð¼Ñĥ": 625,
  "ĠÐ²ÑĢÐ¾Ð´Ðµ": 626,
  "Ð¸Ð±": 627,
  "Ð³Ð¾": 628,
  "de": 629,
  "on": 630,
  "Ð¸Ð»Ð¸": 631,
  "ĠÐºÐ¾": 632,
  "Ð²Ð¾": 633,
  "ÑĥÐ½": 634,
  "Ð§ÑĤÐ¾": 635,
  "Ðł": 636,
  "ĠÐ´Ð²": 637,
  "ĠÑģÐ°Ð¼": 638,
  "ĠÐºÐ¾Ð½": 639,
  "Ð¸Ð¿Ð°": 640,
  "Ð°ÑİÑĤ": 641,
  "Ðĵ": 642,
  "ÑģÐº": 643,
  "Ð´ÐµÐ»": 644,
  "Ð¶Ðµ": 645,
  "ÑĢÐ¾Ð²": 646,
  "Ð»Ðµ": 647,
  "ÑıÐ»": 648,
  "ÑĥÐ¿": 649,
  "ĠÐ½Ð°Ð¿": 650,
  "ÑĳÑĤ": 651,
  "Ñį": 652,
  "Ġr": 653,
  "Ð½Ð¾Ð¹": 654,
  "ÑĢÐ¾": 655,
  "Ð¸Ð³": 656,
  "ĠÐ·Ð½Ð°Ñİ": 657,
  "Ð¢Ñĭ": 658,
  "Ð¾Ð¶Ðµ": 659,
  "Ð»ÑİÑĩ": 660,
  "print": 661,
  "ÑĤÐ¾Ð±": 662,
  "Ð¸Ð»ÑĮ": 663,
  "ĠÐ³Ð´Ðµ": 664,
  "ÐĿÐµÑĤ": 665,
  "Ð½Ñı": 666,
  "ÐµÑĤÑģÑı": 667,
  "ĠÐ¿Ð¾Ðº": 668,
  "ÐµÐµ": 669,
  "ÑĤÑĥ": 670,
  "ÐµÑĢÐµÐ·": 671,
  "10": 672,
  "ĠÐºÐ¾Ð¼": 673,
  "Ġ4": 674,
  "el": 675,
  "Ð´Ñĥ": 676,
  "ĠÐ´ÑĢÑĥÐ³": 677,
  "Ð½ÑĭÑħ": 678,
  ")\\": 679,
  "Ġ3": 680,
  "ĠÐ¿Ð¾ÑĤ": 681,
  "ĠÑģÑĤÑĢ": 682,
  "has": 683,
  "Ð»ÑĮ": 684,
  "ÑĩÐ¸ÑĤ": 685,
  "ĠÐ½ÑĥÐ¶": 686,
  "ÐµÑħ": 687,
  "Ġ'#": 688,
  "ĠÐ·Ð°Ð¿": 689,
  "ar": 690,
  "se": 691,
  "Ð²ÐµÑĢ": 692,
  "htag": 693,
  "hashtag": 694,
  "Ð¸Ð·": 695,
  "ĠÑģÐ´ÐµÐ»": 696,
  "ÑĥÐ´Ð°": 697,
  "www": 698,
  "Ð¾Ð±ÑīÐµ": 699,
  "Ð°ÑģÑģ": 700,
  "ĠÐ¾Ð¿": 701,
  "app": 702,
  "ÐŀÐº": 703,
  "ĠÑĤÐµÐ±Ñı": 704,
  "Ġ+": 705,
  "ĠÐµÐ³Ð¾": 706,
  "()": 707,
  "ĠÐºÑĢ": 708,
  ":\\": 709,
  "]['": 710,
  "..": 711,
  "ÑģÐ¿": 712,
  "for": 713,
  "Ð¾Ð²Ð¾ÑĢ": 714,
  "ĠÐ±ÑĭÑĤÑĮ": 715,
  "ct": 716,
  "ÑıÐ¼": 717,
  "ÑģÑĤÐ²": 718,
  "ĠÐ·Ð°Ðº": 719,
  "ÑĤÐ¾Ð±Ñĭ": 720,
  "ĠÐ¼Ð¾Ð¶ÐµÑĤ": 721,
  "ÑĥÑĢ": 722,
  "ĠÐ¼Ð¾Ð³": 723,
  "ĠÐ¿Ð¾Ð¼": 724,
  "ĠÐ·Ð°Ð´": 725,
  "Ġ==": 726,
  "ĠÐ¿ÑĢÐ¸": 727,
  "ĠÑĤÐ¾Ð¶Ðµ": 728,
  "Ð¾Ð»Ð¶": 729,
  "ĠÐ¿Ð¾Ñĩ": 730,
  "ĠÐºÐ¾ÑĤÐ¾ÑĢ": 731,
  "ÐĽ": 732,
  "ÐĺÐ»Ð¸": 733,
  "ch": 734,
  "ÑĥÐ´ÑĮ": 735,
  "ĠĠĠĠĠĠĠĠĠĠĠĠĠĠĠĠ": 736,
  "Ð½Ð¾Ð²": 737,
  "ĠÐ½Ð¾ÑĢÐ¼": 738,
  "ÐµÐ¶": 739,
  "ĠÑģÐ¾": 740,
  "ĉĉ": 741,
  "ĠÐ±Ð¾Ð»ÑĮ": 742,
  "ĠÐ²Ð¾Ð¾Ð±ÑīÐµ": 743,
  "Ġm": 744,
  "ÐºÐ»ÑİÑĩ": 745,
  "ÑĩÐ°Ñģ": 746,
  "ĠÑĩÐµÑĢÐµÐ·": 747,
  "ÐµÐºÑĤ": 748,
  "ÐķÑģÐ»Ð¸": 749,
  "Ð½Ñĥ": 750,
  "di": 751,
  "Ġn": 752,
  "ÑĢÐ¾Ñģ": 753,
  "ĠÐ¿Ð»": 754,
  "Ð¸Ð½Ñĥ": 755,
  "ÑģÑĤÐ°Ð²": 756,
  "Ð¸ÑĤÑģÑı": 757,
  "ÐŁÐ¾": 758,
  "Ð°Ð»ÑĮÐ½Ð¾": 759,
  "nt": 760,
  "Ð¾ÑĢÐ¾": 761,
  "ĠÐ»Ð¸": 762,
  "ĠÐ±ÑĭÐ»Ð¾": 763,
  "Ġ5": 764,
  "Ġin": 765,
  "ĠÐ¼Ð½Ðµ": 766,
  "Ð¾Ð²Ð°ÑĤÑĮ": 767,
  "12": 768,
  "Ð°ÑĨÐ¸": 769,
  "ĠÐ²Ð¾Ð·": 770,
  "Ð±ÑĥÐ´ÑĮ": 771,
  "Ð¾ÑĤÑĢ": 772,
  "Ð½Ð¸Ð±ÑĥÐ´ÑĮ": 773,
  "us": 774,
  "ĠÐ¿ÑĢÐ¾Ð²": 775,
  "Ð°Ð²ÐµÑĢ": 776,
  "ÐµÐ¹ÑĩÐ°Ñģ": 777,
  "utm": 778,
  "ĠÐ½Ð¾Ð²": 779,
  "ĠÐ²Ð¾ÑĤ": 780,
  "pro": 781,
  "ĠÐºÐ»": 782,
  "Ð¿Ð»": 783,
  "ol": 784,
  "ĠÐ¿Ð°ÑĢ": 785,
  "ĠÐ¾Ñĩ": 786,
  "ĠÐľ": 787,
  "Ð¸Ð¹": 788,
  "ĠÑĩÐ¸Ñģ": 789,
  "Ð½Ð¸Ðº": 790,
  "ÐµÐ»Ð¸": 791,
  "Ð»ÐµÐ¼": 792,
  "ic": 793,
  "ur": 794,
  "ĠÐ±ÐµÐ·": 795,
  "ss": 796,
  "ĠÐ¡": 797,
  "Ð¸ÑģÑĤ": 798,
  "ĠÑĥÐ¶Ðµ": 799,
  "ÐŀÐ½": 800,
  "ĠÐ¿ÐµÑĢÐ²": 801,
  "ĠÐºÐ¾ÑĢ": 802,
  "Ð³ÑĢ": 803,
  "ĠÑĢÐ°Ð±Ð¾ÑĤÐ°ÐµÑĤ": 804,
  "ĠÐ¿ÑĢÐ¾Ð³": 805,
  "ÐŁÑĢÐ¸": 806,
  "ĠÐºÐ°ÐºÐ¾Ð¹": 807,
  "put": 808,
  "ra": 809,
  "Ð°ÐµÑĪÑĮ": 810,
  "ĠÐ´Ð¾": 811,
  "ĠÐ´Ð¾Ð»Ð¶": 812,
  "Ð°Ð·ÑĭÐ²": 813,
  "Ġĉ": 814,
  "ÑĢÐ°Ð¼": 815,
  "ÑıÑĤÑĮ": 816,
  "ĠÑĤÑĢ": 817,
  "Ð¸Ð¼ÐµÑĢ": 818,
  "ĠÐ¼Ñĭ": 819,
  "Ð¾ÑģÑĮ": 820,
  "ĠÐ²ÑģÑĳ": 821,
  "ÐµÑĢÑĮ": 822,
  "Ð°Ð»Ð°": 823,
  "ĠÐ¿Ð¾Ð»ÑĥÑĩ": 824,
  "et": 825,
  "ĠÐºÐ°Ð¶": 826,
  "ÑģÑĤÑĢ": 827,
  "ĠĠĠĠĠ": 828,
  "ÐºÐ¸Ð¹": 829,
  "um": 830,
  "Ð°ÑĪ": 831,
  "ÑĤÐ°": 832,
  "Ð¸Ð¸": 833,
  "ĠÐ´ÑĥÐ¼": 834,
  "Â»": 835,
  "ĠÐ½Ð°Ñģ": 836,
  "Ð°Ð½Ð¸Ðµ": 837,
  "ÐŁÑĢÐ¾ÑģÑĤÐ¾": 838,
  "Ð°Ð²ÐµÑĢÐ½Ð¾Ðµ": 839,
  "ÑģÑĮ": 840,
  "ĠÐ¾Ð½Ð¸": 841,
  "ĠÑĥÐ´": 842,
  "ile": 843,
  "Ġprint": 844,
  "Ð°ÑģÑĤ": 845,
  "ÑĤÑĭ": 846,
  "Ð½Ð¾Ñģ": 847,
  "ÑĳÐ»": 848,
  "Ġif": 849,
  "20": 850,
  "Ð¸ÑĪÑĮ": 851,
  "ÑĥÐ»Ñı": 852,
  "Ġ'']": 853,
  "Ð²Ð¾Ð´": 854,
  "Ð»Ð¸Ð½": 855,
  "be": 856,
  "ce": 857,
  "Â«": 858,
  "ĠÑģÐµÑĢ": 859,
  "ĠÐºÐ¾Ð³Ð´Ð°": 860,
  "ÑģÑĤÐ°Ð½": 861,
  "Ð¢Ð¸Ð¿Ð°": 862,
  "ri": 863,
  "Ð¸Ñı": 864,
  "ĠÐ¿Ð¾Ð¿": 865,
  "Ð¼Ð¾Ð¶Ð½Ð¾": 866,
  "ĠÐºÐ¾Ð´": 867,
  "ĠÑĢÐ°Ñģ": 868,
  "ĠÑĢÐµÑĪ": 869,
  "Ð°ÑĩÐµÐ¼": 870,
  "ĠÐ¿Ð¾Ð½ÑıÐ»": 871,
  "ĠÐ¿ÑĢÐ¾Ð±": 872,
  "Ð¾Ð»ÑĮÐ·": 873,
  "ĠÐ²ÑĢÐµÐ¼": 874,
  "Ð¸ÑĩÐµÐ³Ð¾": 875,
  "Íĵ": 876,
  "Ð¸ÑĦ": 877,
  "ĠÐ¸Ñħ": 878,
  "Ð°Ð½Ð¸Ñı": 879,
  "ĠÐ¾Ð´Ð¸Ð½": 880,
  "Ð¾ÑĢÐ¾ÑĪ": 881,
  "io": 882,
  "ĠÐĲ": 883,
  "ĠÐ²Ð¸Ð´": 884,
  "ĠÐ¾Ñģ": 885,
  "ĠÑĩÐ°Ñģ": 886,
  "ĠÑĩÑĤÐ¾Ð±Ñĭ": 887,
  "ÐµÐ±Ðµ": 888,
  "is": 889,
  "oo": 890,
  "ÑĬ": 891,
  "ĠÐ¾Ðº": 892,
  "Ð½Ð°Ñĩ": 893,
  "ÍĵÍĵ": 894,
  "ÐµÑĤÑĮ": 895,
  "ĠÐ²ÐµÑĢ": 896,
  "ÑĳÐ¼": 897,
  "ÐµÐ»ÑĮÐ½Ð¾": 898,
  "ĠÑĤÐµÐ±Ðµ": 899,
  "Ġ'\\": 900,
  "ĠÐ¸Ð¼": 901,
  "Ð°ÑĤÐ¸": 902,
  "Ð½ÐµÐµ": 903,
  "ĠÑģÐ´ÐµÐ»Ð°ÑĤÑĮ": 904,
  "ÑĢÐ°Ð¼Ð¼": 905,
  "ĠÐ¾Ð½Ð°": 906,
  "ĠÐ¿ÑĢÐ°Ð²": 907,
  "ÐĴÐ¾ÑĤ": 908,
  "ĠÐ¼Ð¾Ð³Ñĥ": 909,
  "('": 910,
  "80": 911,
  "ÑĤÐµ": 912,
  "ÑĥÑĪ": 913,
  "ÐºÐ¾Ð¹": 914,
  "ĠÐ½Ð°Ð¹": 915,
  "Ð´Ð¸Ð½": 916,
  "ĠÐºÐ°ÑĢ": 917,
  "ĠÐ¼Ð¾": 918,
  "Ð¾Ð±ÑĢ": 919,
  "ĠÐ³Ð¾Ð²Ð¾ÑĢ": 920,
  "and": 921,
  "ge": 922,
  "ĠÐĴ": 923,
  "ĠÐŀ": 924,
  "ÑĭÑħ": 925,
  "ÑĩÐ½Ð¾": 926,
  "ĠÐºÑĢÑĥ": 927,
  "ĠÑĤÐ¸Ð¿Ð°": 928,
  "ÐµÑĢÐ°": 929,
  "Ð°Ð»ÑģÑı": 930,
  "ĠÐ¿ÑĢÐµÐ´": 931,
  "ĠÐ¸Ð½ÑĤÐµÑĢ": 932,
  "ĠÐ¾ÑĩÐµÐ½ÑĮ": 933,
  "ro": 934,
  "ðŁ": 935,
  "ÐºÑĢ": 936,
  "ÐºÑĨÐ¸": 937,
  "ĠÐ´Ð¾Ð¼": 938,
  "ĠÐ¿ÑĢÐ¸Ð½": 939,
  "ĠÐ·Ð°Ð±": 940,
  "ÐŀÑĤ": 941,
  "Ð¡ÑĤ": 942,
  "Ð°Ð¶Ðµ": 943,
  "ĠÐ¿Ð¾ÑĤÐ¾Ð¼": 944,
  "Ġ\\": 945,
  "Ð¸Ð°Ð½": 946,
  "Ð¸Ð»ÑĮÐ½Ð¾": 947,
  "ĠÑģÑĤÑĢÐ¾Ðº": 948,
  "Ġf": 949,
  "ÑĭÐ»": 950,
  "ÐµÐ½Ð½Ð¾": 951,
  "du": 952,
  "ĠÐ¼Ð¸Ð½": 953,
  "ĠÐ½Ð°Ð¿Ð¸Ñģ": 954,
  "ĠÐ¿Ð¸ÑĤ": 955,
  "Ð¾Ð½Ðµ": 956,
  "15": 957,
  "ĠÂ«": 958,
  "Ð´Ð¸": 959,
  "Ð¼Ð¸": 960,
  "ĠÑĤÑĥÑĤ": 961,
  "ĠÐ¸ÑģÐ¿": 962,
  "out": 963,
  "Ġint": 964,
  "ĠÐĿ": 965,
  "ĠÐ½Ð°Ð²ÐµÑĢÐ½Ð¾Ðµ": 966,
  "ĠÐ²Ð¸": 967,
  "ĠÐ¼Ð°ÑĤ": 968,
  "Ð±ÑĢ": 969,
  "ĠÐ°ÑĢ": 970,
  "ĠÐ·Ð°Ð´Ð°Ñĩ": 971,
  "13": 972,
  "ma": 973,
  "ÑĥÐº": 974,
  "Ð»Ð¾Ð²": 975,
  "Ð¾Ð¶ÐµÑĪÑĮ": 976,
  "ÐºÐ¸Ðµ": 977,
  "ĠÐ±ÑĭÐ»": 978,
  "Ìı": 979,
  "ÑĢÐ°ÑĤ": 980,
  "ÑģÐµ": 981,
  "Ð»ÐµÐ´": 982,
  "ÐĴÑĭ": 983,
  "Ġ10": 984,
  "ÐķÑģÑĤÑĮ": 985,
  "ĠÐ´Ð²Ð°": 986,
  "Ð½Ð¾ÑģÑĤÑĮ": 987,
  "ĉĠĠĠ": 988,
  "ÑĥÑģÑĤ": 989,
  "ĠÑģÐ²": 990,
  "Ð°ÐºÑģ": 991,
  "Ð³Ð°": 992,
  "ÐµÑĩÐ½Ð¾": 993,
  "ĠÐ¿ÑĢÐ¾Ð³ÑĢÐ°Ð¼Ð¼": 994,
  "ÌıÌı": 995,
  "/'}]": 996,
  "ĠÐ¿Ð¾ÑĢ": 997,
  "ĠÐ²Ð°ÑĢ": 998,
  "ÑĪÑĮ": 999,
  "Ð°Ð»Ð¾": 1000,
  "Ð¢Ð¾": 1001,
  "ÐŁÐ¾Ñĩ": 1002,
  "ÐĴÐ¾": 1003,
  "if": 1004,
  "lo": 1005,
  "ÑĢÐ¾Ð±": 1006,
  "ÑĥÐ±": 1007,
  "Ð°Ð½Ð´": 1008,
  "Ð¾ÑĤÐ¾Ð²": 1009,
  "Ð¡Ðº": 1010,
  "ÑĥÐ½ÐºÑĨÐ¸": 1011,
  "14": 1012,
  "82": 1013,
  "id": 1014,
  "Ð¤": 1015,
  "Ġ6": 1016,
  "Ġb": 1017,
  "ing": 1018,
  "ĠÑĤÐ°ÐºÐ¾Ð¹": 1019,
  "ĠÐºÐ°Ð¶Ð´": 1020,
  "ĠÐ¢": 1021,
  "ÑıÐ´": 1022,
  "ĠÐ½ÐµÐ¿": 1023,
  "ĠÐ½Ð°ÑĪ": 1024,
  "ÑĥÑĩÑĪÐµ": 1025,
  "ÐµÑģÑĤÐ²": 1026,
  "ĠÐ½Ð¾ÑĥÑĤ": 1027,
  "ÐµÐ¿ÐµÑĢÑĮ": 1028,
  "ÑħÐ¾Ð´Ð¸ÑĤ": 1029,
  "ĠâĢ": 1030,
  "Ð°Ð°": 1031,
  "ÑĢÐµÐ´": 1032,
  "ĠÐ½Ð¸ÑĩÐµÐ³Ð¾": 1033,
  "ĠÐ´Ð¾ÑģÑĤ": 1034,
  "ĠÐ¼Ð°Ð¼": 1035,
  "ĠÐ°Ðº": 1036,
  "ĠÐ°Ð¹": 1037,
  "Ð¸Ð±Ð¾": 1038,
  "ĠÐ¿Ð¾ÑĩÐµÐ¼Ñĥ": 1039,
  "ĠÐ±Ð¾Ð»ÑĮÑĪÐµ": 1040,
  "ĉĠĠĠĠĠĠĠ": 1041,
  "Ġy": 1042,
  "ĠÐļ": 1043,
  "ĠÐ²Ð·": 1044,
  "Ð°ÑĤÑĮÑģÑı": 1045,
  "ĠÑħÐ¾Ñĩ": 1046,
  "ÐµÑĩÐ°ÑĤ": 1047,
  "ck": 1048,
  "ĠÐĺ": 1049,
  "Ð½Ð¾Ð¼": 1050,
  "Ð½Ð¾Ð¿": 1051,
  "ĠÐ²Ð¸Ð½": 1052,
  "ĠÐ´Ð°Ð½": 1053,
  "Ð¿ÑĢÐ°Ð²": 1054,
  "ÑģÑĤÐ¸": 1055,
  "ÑģÑĤÑĢÐ¾": 1056,
  "ĠÑħÐ¾ÑĢÐ¾ÑĪ": 1057,
  "Ð¸ÑĢÐ¾Ð²": 1058,
  "ĠÐºÑĢÐ°Ñģ": 1059,
  "Ġ\"": 1060,
  "ÑĤÑĢ": 1061,
  "Ð»Ð°Ð´": 1062,
  "ĠÑģÐµÐ¹ÑĩÐ°Ñģ": 1063,
  "Ð°Ð·Ð°Ð»": 1064,
  "ĠÐ¿Ð¾ÐºÐ°": 1065,
  "op": 1066,
  "ĠÐ½ÐµÐ³Ð¾": 1067,
  "ĠÐºÐ¾Ð»": 1068,
  "ĠÐ¿ÑĢÐ¸Ð¼ÐµÑĢ": 1069,
  "ÑİÑĤ": 1070,
  "ĠÑĥÐ³": 1071,
  "ĠÑįÐº": 1072,
  "ÐľÐ½Ðµ": 1073,
  "ĠÑĦÑĥÐ½ÐºÑĨÐ¸": 1074,
  "ÑıÑĤÐ½Ð¾": 1075,
  "en": 1076,
  "ĠÐ¼Ð½Ð¾Ð³Ð¾": 1077,
  "ÑħÐ°Ñħ": 1078,
  "Ð¾Ð´Ñĥ": 1079,
  "ĠĠĠĠĠĠĠĠĠĠĠĠĠĠĠ": 1080,
  "Ð¾Ð·Ð´": 1081,
  "Ð¸ÑĩÐµÑģ": 1082,
  "ew": 1083,
  "ÑĥÐ¹": 1084,
  "ĠÐ½Ð¸Ñħ": 1085,
  "ĠÑĤÐµÐ»": 1086,
  "ĠÐ¿ÑĢÑıÐ¼": 1087,
  "ÑĨÐ°": 1088,
  "ĠÑģÐºÐ¾ÑĢ": 1089,
  "...": 1090,
  "50": 1091,
  ";\\": 1092,
  "am": 1093,
  "ÑĢÐ°Ð·": 1094,
  "ÑĥÐ·": 1095,
  "ĠÑĤÐ¾Ð³Ð´Ð°": 1096,
  "dd": 1097,
  "Ġx": 1098,
  "ĠÑģÐ²Ð¾": 1099,
  "ĠÐ½Ð°Ñĩ": 1100,
  "ĠÑģÐ»ÑĥÑĩ": 1101,
  "ĠÐ½Ð°Ð¹ÑĤÐ¸": 1102,
  "+=": 1103,
  "li": 1104,
  "Ð¨": 1105,
  "Ġel": 1106,
  "Ð½ÑĥÑİ": 1107,
  "ment": 1108,
  "ÐĿÐ°Ð´Ð¾": 1109,
  "ÐµÑĢÐ¶": 1110,
  "Ð¿Ð¾Ð»": 1111,
  "input": 1112,
  "ref": 1113,
  "ÑĢÐ°ÑĦ": 1114,
  "ĠÐ½ÑĥÐ¶ÐµÐ½": 1115,
  "produ": 1116,
  "product": 1117,
  "ÑıÐ·": 1118,
  "ĠÐ»Ñİ": 1119,
  "ĠÐ²ÑģÐµÐ³Ð¾": 1120,
  "ÐµÐºÑģ": 1121,
  "90": 1122,
  "sha": 1123,
  "Ð¼Ð¾ÑĤÑĢ": 1124,
  "ĠÐ¸Ð³ÑĢ": 1125,
  "ĠÐ´Ð°Ð¶Ðµ": 1126,
  "ĠÐ¿ÑĢÐ¸Ðº": 1127,
  "ĠÐ·Ð²": 1128,
  "ĠÐ¿Ð¾Ð½Ð¸Ð¼": 1129,
  "ame": 1130,
  "ĠS": 1131,
  "Ð»Ñĭ": 1132,
  "ĠÐ»ÑĥÑĩÑĪÐµ": 1133,
  "ĠÑĦÐ¾ÑĢÐ¼": 1134,
  "ĠÐ¿Ð¾Ð´ÐºÐ»ÑİÑĩ": 1135,
  "ÐļÐ°ÐºÐ¾Ð¹": 1136,
  "ange": 1137,
  "ĠÐ²Ð¾Ð·Ð¼Ð¾Ð¶Ð½Ð¾": 1138,
  "ĠÐ²Ð°ÑĢÐ¸Ð°Ð½": 1139,
  "as": 1140,
  "ion": 1141,
  "Ġ<": 1142,
  "Ġc": 1143,
  "ÑĥÑħ": 1144,
  "Ð»Ð¸Ñĩ": 1145,
  "ĠÐ¾ÑĤÐ²ÐµÑĤ": 1146,
  "ĠÑĤÐ°ÐºÐ¾Ðµ": 1147,
  "ĠÐ¾Ð±ÑĬ": 1148,
  "ĠÐºÐ¾Ð½ÐµÑĩÐ½Ð¾": 1149,
  "ÐŁÐ¾ÑĩÐµÐ¼Ñĥ": 1150,
  "href": 1151,
  "ĠÐĶ": 1152,
  "ÑĥÑī": 1153,
  "ÐºÐ¾Ð¼": 1154,
  "ÑĭÑģ": 1155,
  "ÐĲÑħÐ°Ñħ": 1156,
  "Ð¾ÑĤÑı": 1157,
  "ĠÑĥÑĩ": 1158,
  "Ð°Ð²Ð½Ð¾": 1159,
  "ÐĴÑĢ": 1160,
  "ĠÐ¿ÐµÑĢÐµÐ´": 1161,
  "ad": 1162,
  "no": 1163,
  "Ġ7": 1164,
  "ÑĭÑĤ": 1165,
  "Ð¾Ð´Ð°": 1166,
  "ĠÐ·Ð°Ð²": 1167,
  "ĠÑĥÐ¼": 1168,
  "ĠÐ´ÐµÐ»Ð°ÑĤÑĮ": 1169,
  "Ġrange": 1170,
  "ĠÐ´ÑĥÐ¼Ð°Ð»": 1171,
  "ÑģÑĤÐ°Ð½Ð¾Ð²": 1172,
  "ĠÐ¿ÑĢÐ¾Ð±Ð»ÐµÐ¼": 1173,
  "so": 1174,
  "sp": 1175,
  "Ð½Ñİ": 1176,
  "ĠÐ²ÑĤÐ¾ÑĢ": 1177,
  "ĠÑģÑĤÐ¾": 1178,
  "ÑĪÐ¸Ð±": 1179,
  "ĠÐ¿ÑĢÐ¸Ð´": 1180,
  "Ð¸ÑĤÐµÐ»ÑĮ": 1181,
  "ÐľÐ¾Ð¶ÐµÑĤ": 1182,
  "ÐµÑģÑĮ": 1183,
  "ĠÑįÑĤÐ¾Ð³Ð¾": 1184,
  "ÑįÑĤ": 1185,
  "])": 1186,
  "ĠÐł": 1187,
  "ĠÑģÐ°Ð¹": 1188,
  "ĠÑĤÐµÑģÑĤ": 1189,
  "Ð¿ÐµÑĢ": 1190,
  "ÐĲÐ³Ð°": 1191,
  "ĠÐ·Ð°ÑĩÐµÐ¼": 1192,
  "Ð¾ÑĢÐ¸ÑĤ": 1193,
  "ĠÑĦÐ°Ð¹": 1194,
  "Ð°ÑİÑĤÑģÑı": 1195,
  "ĠÐ¿ÑĢÐ¾Ð²ÐµÑĢ": 1196,
  "ĠÐ²Ð¸Ð´Ðµ": 1197,
  "Ð¸ÐºÐ°": 1198,
  "Ð½Ð´": 1199,
  "ĠÑĤÐµÐ¼": 1200,
  "Ð¾Ð²Ñģ": 1201,
  "ÑģÑĤÐ°ÑĤÐ¸": 1202,
  "ĠÑĩÐµÐ¼": 1203,
  "ĠÐ·Ð°Ð¼": 1204,
  "Ð¸Ð½Ð°": 1205,
  "ÐľÑĭ": 1206,
  "Ġ+=": 1207,
  "ĠÐ²ÑĢÐµÐ¼Ñı": 1208,
  "il": 1209,
  "ve": 1210,
  "yout": 1211,
  "Ð¾ÑĤÑĢÐ¸": 1212,
  "Ð¾ÑģÑĤÑĮ": 1213,
  "ĠÑģÑĤÐ¾Ð»": 1214,
  "Ð»ÐµÐ½Ð¸Ðµ": 1215,
  "ÑıÑĤÐ¸": 1216,
  "ĠÑģÐ¾Ð±": 1217,
  "ĠÐ¾ÑģÑĤ": 1218,
  "ĠÐ°Ð»": 1219,
  "ÐŀÐ½Ð¸": 1220,
  "Ð½Ð¸Ð¼": 1221,
  "ÐºÐ°Ñı": 1222,
  "ĠÑģÐ¼ÑĭÑģ": 1223,
  "youtu": 1224,
  "16": 1225,
  "30": 1226,
  "ow": 1227,
  "wh": 1228,
  "Ġ!": 1229,
  "Ġq": 1230,
  "ĠÐ¿Ðº": 1231,
  "ĠÑģÑĩÐ¸ÑĤ": 1232,
  "ĠÐºÐ²": 1233,
  "ĠÐ¼Ð°ÑģÑģ": 1234,
  "ÐµÐ½Ð°": 1235,
  "ÐľÐ°Ð¼": 1236,
  "ĠÑģÐ¼Ð¾ÑĤÑĢ": 1237,
  "ĉĠĠĠĠĠ": 1238,
  "Ġfor": 1239,
  "Ġand": 1240,
  "ÐµÑĦ": 1241,
  "Ð¸ÐºÐ¸": 1242,
  "ÑĥÐ³": 1243,
  "ÑıÐ²": 1244,
  "ĠÐºÑĤÐ¾": 1245,
  "ĠÑĤÑĢÐ¸": 1246,
  "ĠÑĤÐµÐ¿ÐµÑĢÑĮ": 1247,
  "Ð¾Ð´Ð½Ñı": 1248,
  "Ð»Ð¸Ð²": 1249,
  "ÐŁÐ¾Ñģ": 1250,
  "Ð¸Ð»ÑģÑı": 1251,
  "ÐµÐ³Ð¾Ð´Ð½Ñı": 1252,
  "Ð¥Ð¼": 1253,
  "ÐĵÐ´Ðµ": 1254,
  "())": 1255,
  "es": 1256,
  "sh": 1257,
  "Ġj": 1258,
  "Ð¢Ð¾Ð»ÑĮÐºÐ¾": 1259,
  "ĠÐºÐ°ÐºÐ¸Ðµ": 1260,
  "ÑĤÐ¾ÑĢÐ°": 1261,
  "ĠÑĪÑĤÑĥ": 1262,
  "ĠÐ±Ð¾Ð»ÑĮÑĪ": 1263,
  "Ġ!=": 1264,
  "ÐµÑī": 1265,
  "Ð½ÐµÑĤ": 1266,
  "ĠÐ¸Ð´": 1267,
  "Ð¿ÑĢ": 1268,
  "Ð¢ÑĥÑĤ": 1269,
  "Ð¢Ð¾Ð³Ð´Ð°": 1270,
  "Ð°Ð·Ð°ÑĤÑĮ": 1271,
  "ÐĶÐ»Ñı": 1272,
  "Ð¡ÐµÐ¹ÑĩÐ°Ñģ": 1273,
  "ÑĦÐ¾ÑĢÐ¼": 1274,
  "ÑĢÐ°ÑĪ": 1275,
  "ĠÐµÑīÐµ": 1276,
  "ĠÐ¿Ð¾ÑģÐ»Ðµ": 1277,
  "ĠÐ¸ÑģÐ¿Ð¾Ð»ÑĮÐ·": 1278,
  "ĠÐ¿Ð¾Ð½Ð¸Ð¼Ð°Ñİ": 1279,
  "45": 1280,
  "ter": 1281,
  "Ð¸Ð¶": 1282,
  "ÑĩÐµÑģ": 1283,
  "ÑĩÐ¸Ðº": 1284,
  "ĠÑģÑģ": 1285,
  "ÐµÑĢÑĭ": 1286,
  "ĠÐ¼Ð¾Ð´": 1287,
  "Ð¿Ð¸": 1288,
  "Ð·Ð°": 1289,
  "Ð¾Ð½Ð°": 1290,
  "ÐĴÑģÐµ": 1291,
  "ĠÐºÐ°ÐºÐ°Ñı": 1292,
  "ĠÑįÑĤÐ¾Ð¼": 1293,
  "ĠÐºÐ»Ð°ÑģÑģ": 1294,
  "share": 1295,
  "ÐĴÑĢÐ¾Ð´Ðµ": 1296,
  "ns": 1297,
  "ÑĥÐ»ÑĮ": 1298,
  "ÐºÐ¾Ð»": 1299,
  "ĠÐ½Ð°Ð·": 1300,
  "ĠÑģÐ¸Ð½": 1301,
  "Ð¼Ñĥ": 1302,
  "ĠÐ¸Ð´Ðµ": 1303,
  "ĠÑİ": 1304,
  "ĠÐ·Ð°Ð½": 1305,
  "Ð¸Ð½Ðµ": 1306,
  "ĠÑĥÑģ": 1307,
  "Ð°ÑģÑĮ": 1308,
  "ÐľÐ¾Ð¶Ð½Ð¾": 1309,
  "ĠÐºÐ¾Ð¼Ð¿": 1310,
  "ĠÐ½ÑĥÐ¶Ð½Ð¾": 1311,
  "ĠÐºÐ¾ÑĤÐ¾ÑĢÑĭÐ¹": 1312,
  "ĠÑĩÐ¸ÑģÐ»Ð°": 1313,
  "ĠÐ»ÑİÐ±": 1314,
  "/?": 1315,
  "ko": 1316,
  "ĠM": 1317,
  "ĠP": 1318,
  "Ġ[": 1319,
  "ÑĤÑĢÐ°": 1320,
  "medi": 1321,
  "ĠÐ²ÑģÑı": 1322,
  "ĠÑĤÐ¾Ð³Ð¾": 1323,
  "ĠÐ¼ÐµÑĤ": 1324,
  "ĠÐ¼Ð°Ð»": 1325,
  "ĠÐ±Ð»Ð¸Ð½": 1326,
  "Ð³Ð»Ñı": 1327,
  "ÐŁÐ¾ÑĤ": 1328,
  "ĠÐ°Ð²": 1329,
  "Ð¾ÐºÐ°": 1330,
  "ĠÑģÑĤÐ°ÑĢ": 1331,
  "Ð¸ÑĤÑĮÑģÑı": 1332,
  "Ġ20": 1333,
  "ĠÐ¿Ð¾ÑģÐ»ÐµÐ´": 1334,
  "ĠÐ´ÑĢÑĥÐ³Ð¾Ð¹": 1335,
  "ĠÐ¿Ð»Ð°Ð½": 1336,
  "old": 1337,
  "ĠÐºÑĢÑĥÑĤ": 1338,
  "ĠÐ¸Ð½ÑĤÐµÑĢÐµÑģ": 1339,
  "ĠÐ¼Ð¸Ð½ÑĥÑĤ": 1340,
  "ĠÐ°Ð»Ð³": 1341,
  "17": 1342,
  "25": 1343,
  "60": 1344,
  "go": 1345,
  "Ġp": 1346,
  "Ð¾ÑĤÐ¾": 1347,
  "ÑĮÑİ": 1348,
  "ĠÐ¿Ð¸Ñģ": 1349,
  "ĠÐ¿Ð¸ÑĪ": 1350,
  "ĠÑģÑĤÐ¾ÑĢ": 1351,
  "ĠÑģÐ¾Ð·Ð´": 1352,
  "Ð´Ñĭ": 1353,
  "ĠÐ¾ÑĪÐ¸Ð±": 1354,
  "Ð°ÑĤÐµÐ»ÑĮ": 1355,
  "Ð¾Ð»ÑĮÐ½Ð¾": 1356,
  "Ð°Ð¹Ð½": 1357,
  "ĠÐ²ÑĭÐ²Ð¾Ð´": 1358,
  "ĠÐ¾Ð±Ñī": 1359,
  "ĠÐ¿ÑĢÐ¾ÑĪ": 1360,
  "ĠÐ½Ð¾ÑĢÐ¼Ð°Ð»ÑĮÐ½Ð¾": 1361,
  "ÍĵÍĵÍĵÍĵ": 1362,
  "ÑįÑĤÐ¾Ð¼Ñĥ": 1363,
  "):": 1364,
  "/'},": 1365,
  "mp": 1366,
  "vi": 1367,
  "ĠA": 1368,
  "ĠÐ¯": 1369,
  "ÑĢÐ¾Ð½": 1370,
  "ÑĭÐ¼": 1371,
  "ĠÐºÑĥÐ´Ð°": 1372,
  "ĠÐºÐ½Ð¾Ð¿": 1373,
  "ĠÐ±ÐµÑģ": 1374,
  "ĠÑĢÐ¾Ð±": 1375,
  "Ð¾ÑĤÐ°": 1376,
  "ÑĨÑĭ": 1377,
  "Ð¡Ð¿": 1378,
  "ÐĹÐ°": 1379,
  "ĠÑĨÐ²ÐµÑĤ": 1380,
  "ÐŀÐºÐµÐ¹": 1381,
  "ĠĠĠĠĠĠĠĠĠĠĠĠĠĠĠĠĠĠĠĠĠĠĠ": 1382,
  "ĠÑħÐ¾ÑĢÐ¾ÑĪÐ¾": 1383,
  "18": 1384,
  "BE": 1385,
  "Ġ>": 1386,
  "Ġ{": 1387,
  "Ð°Ð½Ð¾": 1388,
  "ÑĤÐ°Ðº": 1389,
  "ĠÐºÑĥÐ¿": 1390,
  "Ð±Ð¾ÑĢ": 1391,
  "Ð¸ÑĤÐµ": 1392,
  "ĠÑįÑĤÐ¸": 1393,
  "ÑĳÐ½": 1394,
  "ĠÐ¾ÑĤÐºÑĢ": 1395,
  "ĠÐ±ÑĭÐ»Ð°": 1396,
  "str": 1397,
  "ĠÐ´Ð¾Ð»Ð¶Ð½Ð¾": 1398,
  "ments": 1399,
  "Ð¾ÑĢÐ¸ÑĤÐ¼": 1400,
  "while": 1401,
  "ĠÐ¼Ð°ÑģÑģÐ¸Ð²": 1402,
  "33": 1403,
  "88": 1404,
  "name": 1405,
  "Ð°ÐµÐ¼": 1406,
  "Ð½ÐµÐ¹": 1407,
  "ÐºÐ°Ð¼Ð¸": 1408,
  "Ð²Ð°ÑĤ": 1409,
  "ĠÐ¾Ð½Ð¾": 1410,
  "Ð½ÑĭÐ¼": 1411,
  "Ð°Ð´Ð½Ð¾": 1412,
  "Ð¸Ð»Ð¾ÑģÑĮ": 1413,
  "Ð¸ÑģÑĮ": 1414,
  "Ð¸ÑģÐº": 1415,
  "ĠÑĤÐ¾ÑĩÐ½Ð¾": 1416,
  "Ð§ÑĤÐ¾Ð±Ñĭ": 1417,
  "Ð»Ð¾Ñħ": 1418,
  "ĠÑģÐºÐ¾Ð»ÑĮÐºÐ¾": 1419,
  "apple": 1420,
  "ĠÑĥÐ´Ð¾Ð±": 1421,
  "ĠÐ¿ÑĢÐ¸Ð½ÑĤÐµÑĢ": 1422,
  "Ð°ÐºÑģÐ¸Ð¼": 1423,
  "24": 1424,
  "la": 1425,
  "nd": 1426,
  "ĠÑģÐ¸ÑģÑĤ": 1427,
  "ĠÐ¿ÑĢÐ¾Ð´": 1428,
  "Ð¿ÑĥÑģ": 1429,
  "ÑħÐ°": 1430,
  "ĠÑĩÐµÐ³Ð¾": 1431,
  "Ð°ÑĤÑĭ": 1432,
  "Ð¸Ð»Ð¾Ð¶": 1433,
  "ÑĤÐ¸ÑĢÐ¾Ð²": 1434,
  "ĠÐ¿Ð¾ÑģÐ¼Ð¾ÑĤÑĢ": 1435,
  "ĠÐºÑĢÐ°ÑģÐ¸Ð²": 1436,
  "Ð³Ð»ÑıÐ´": 1437,
  "++": 1438,
  "49": 1439,
  "ub": 1440,
  "Ðĸ": 1441,
  "ĠI": 1442,
  "Ð¾Ð¾": 1443,
  "ÑĤÐ¸Ð½": 1444,
  "Ð»Ð¾Ð¶": 1445,
  "ĠÐ½Ð¸Ðº": 1446,
  "ĠÐ´Ð¾Ð±": 1447,
  "Ð¾Ð²Ð°Ð»": 1448,
  "ĠÐ·Ð½": 1449,
  "ÐŁÐµÑĢ": 1450,
  "Ð½Ð¸ÐºÐ¸": 1451,
  "ÑĢÑĥÐ·": 1452,
  "ĠÐ»Ð¾Ð³": 1453,
  "ĠÐ¾ÑĤÐ¿ÑĢÐ°Ð²": 1454,
  "ĠÑĤÐ¾Ñĩ": 1455,
  "ĠÐ¿ÑĢÐ¾ÐµÐºÑĤ": 1456,
  "dex": 1457,
  "urce": 1458,
  "ĠÑģÐ»ÑĥÑĩÐ°": 1459,
  "ĠÐ²Ð°ÑĢÐ¸Ð°Ð½ÑĤ": 1460,
  "source": 1461,
  "]ðŁ": 1462,
  "bold": 1463,
  "ta": 1464,
  "ĠÐĳ": 1465,
  "ĠÐĵ": 1466,
  "ÑĢÐµ": 1467,
  "ÑĥÑĤÑĮ": 1468,
  "ĠÐ½ÐµÐ´": 1469,
  "ĠÐ²Ð°Ñģ": 1470,
  "ĠÑģÐ¸Ð¼": 1471,
  "Ð¼Ð¸Ð½": 1472,
  "ĠÐºÑĥÑĢ": 1473,
  "ĠÐ¼Ð°Ð³": 1474,
  "ĠÐ¿ÑĢÐ¾Ñģ": 1475,
  "Ð³Ñĥ": 1476,
  "ÐŁÐ¾Ð¿": 1477,
  "Ð°Ð²Ð¸ÑĤÑĮ": 1478,
  "ÑīÑĳ": 1479,
  "ÐĺÐ·": 1480,
  "Ð»ÑıÑĤÑĮ": 1481,
  "ĠÐ¾ÑĤÐº": 1482,
  "ÐķÑīÑĳ": 1483,
  "redd": 1484,
  "comments": 1485,
  "Ð¥Ð¾ÑĤÑı": 1486,
  "ĠÐ¿Ð¾Ð¼Ð½Ñİ": 1487,
  "ÑĢÐ¾Ð±ÑĥÐ¹": 1488,
  "ĠâĢĶ": 1489,
  "Ġelse": 1490,
  "ĠÑģÑĤÐ¾ÑĢÐ¾Ð½": 1491,
  "reddit": 1492,
  "ĠD": 1493,
  "Ð¼Ð¼": 1494,
  "ĠÑĤÐ²Ð¾": 1495,
  "ĠÐ¿ÑĢÐµÐ·": 1496,
  "Ð¾Ð¼ÐµÑĤ": 1497,
  "ĠÐ·Ð°ÑĢ": 1498,
  "ĠÑĢÐµ": 1499,
  "Ð¾ÑĢÑĤ": 1500,
  "ĠÑĥÐ²": 1501,
  "ÐŁÐ¾Ð´": 1502,
  "Ð°ÑĤÑĥ": 1503,
  "ĠÐ³Ð¾ÑĤÐ¾Ð²": 1504,
  "ÌıÌıÌıÌı": 1505,
  "ĠÑĥÑģÐ»Ð¾Ð²": 1506,
  "medium": 1507,
  "ĠÐ°Ð»Ð³Ð¾ÑĢÐ¸ÑĤÐ¼": 1508,
  "ik": 1509,
  "min": 1510,
  "Ġ9": 1511,
  "ĠT": 1512,
  "Ġa": 1513,
  "Ġre": 1514,
  "ÑģÐ¸": 1515,
  "Ð»ÐµÐ½": 1516,
  "Ð¼ÐµÑĢ": 1517,
  "Ð¼Ð¾ÑĤÑĢÐ¸": 1518,
  "ÐµÑĢÐµ": 1519,
  "Ð°Ð»Ðµ": 1520,
  "ĠÐ·Ð°Ð³": 1521,
  "ÐºÐ¸Ñħ": 1522,
  "ĠÐ³Ð»": 1523,
  "ĠÐ¿Ð¾ÑıÐ²": 1524,
  "ÐµÐ½Ð¸Ð¸": 1525,
  "ÐµÐ½Ð¸Ð¹": 1526,
  "ĠÐ¾Ð±Ñĭ": 1527,
  "ĠÐ·Ð½Ð°Ñĩ": 1528,
  "ÐĹÐ°ÑĩÐµÐ¼": 1529,
  "ÐµÐ½ÑĤÐ°ÑĨÐ¸": 1530,
  "ÑģÑĤÑĢÐ¾Ð¹": 1531,
  "ĠÑģÐµÑĢÐ²ÐµÑĢ": 1532,
  "ĠÐ½Ð°ÑĪÑĳÐ»": 1533,
  "ÑĢÐ°Ð·Ñĥ": 1534,
  "ĠÑģÑĤÐ¾Ð¸ÑĤ": 1535,
  "')": 1536,
  ".\\": 1537,
  "19": 1538,
  "36": 1539,
  "40": 1540,
  "87": 1541,
  "mat": 1542,
  "of": 1543,
  "yth": 1544,
  "Ð¾ÑĦ": 1545,
  "ÑĤÐ¾Ð¼": 1546,
  "ÑĢÑĭ": 1547,
  "ĠÐ¿Ð¾Ð²": 1548,
  "ĠÐ¿Ð°Ð¿": 1549,
  "ĠÐ¿Ð¾Ð»ÑĮÐ·": 1550,
  "ĠÑģÐµÐ³Ð¾Ð´Ð½Ñı": 1551,
  "ĠÑĤÐ¾Ð¼": 1552,
  "ĠÐ¼Ð¾Ð¶ÐµÑĪÑĮ": 1553,
  "Ð¿Ð¸Ñģ": 1554,
  "ÑİÐ´Ð°": 1555,
  "ĠÑĢÐµÐ·": 1556,
  "Ð¸Ð½Ð³": 1557,
  "ÐĴÐ¾Ð·": 1558,
  "ÐļÑģÑĤÐ°ÑĤÐ¸": 1559,
  "ĠÐ°Ð½": 1560,
  "ĠÐ³Ð¾ÑĢ": 1561,
  "ÑĢÑĥÐ±": 1562,
  "ĠÐ±ÑĭÐ»Ð¸": 1563,
  "ort": 1564,
  "Ð¸ÑĢÐ¾Ð²Ð°ÑĤÑĮ": 1565,
  "ĠÐ·Ð½Ð°ÐµÑĪÑĮ": 1566,
  "ĠÑĨÐµÐ»": 1567,
  "Ð¾ÑģÑĤÐ¸": 1568,
  "ÑģÐºÐ¾Ð»ÑĮÐºÐ¾": 1569,
  "ĠÐ·Ð°Ð¿ÑĥÑģ": 1570,
  "Ð½Ð°ÑĩÐ°Ð»Ð°": 1571,
  "ĠÑģÐ¼ÑĭÑģÐ»Ðµ": 1572,
  "ĠÐºÐ²Ð°Ð´": 1573,
  "22": 1574,
  "].": 1575,
  "gi": 1576,
  "gra": 1577,
  "yan": 1578,
  "Ð«": 1579,
  "ĠC": 1580,
  "ĠÐķ": 1581,
  "Ð¸ÑĨÐ¸": 1582,
  "ÑģÑĭ": 1583,
  "ĠÐ¿Ð¾Ð·": 1584,
  "ĠÐ¿ÐµÑĩÐ°ÑĤ": 1585,
  "ÑıÐ±ÑĢ": 1586,
  "ĠÑģÐµÐ±Ðµ": 1587,
  "Ġ'(": 1588,
  "ĠÑĤÐµ": 1589,
  "ĠÐ´ÐµÐ½ÑĮ": 1590,
  "ĠÐ¼Ð¾Ð½": 1591,
  "ĠÐ¿ÑĢÐ¸Ð»Ð¾Ð¶": 1592,
  "ÑģÑĤÐ°": 1593,
  "ĠÐ±ÑĢ": 1594,
  "ĠÐ±Ð¾Ð»": 1595,
  "Ð¾Ð¼Ðµ": 1596,
  "Ð°Ð½ÑĮ": 1597,
  "ĠÑĥÑģÑĤÐ°Ð½Ð¾Ð²": 1598,
  "ÐµÐ¼Ð°": 1599,
  "Ð¸Ð»Ð°": 1600,
  "ĠÑįÑĤÐ¾ÑĤ": 1601,
  "Ð°Ð»ÑĮÐ½ÑĭÐ¹": 1602,
  "stat": 1603,
  "ÐµÑģÑĤÐ²Ð¾": 1604,
  "ĠÑģÐ»ÐµÐ´": 1605,
  "Ð°Ð·ÑĭÐ²Ð°ÐµÑĤÑģÑı": 1606,
  "ios": 1607,
  "ĠÐ²Ð¸Ð´ÐµÐ¾": 1608,
  "Ð»Ð¾ÑħÐ¾": 1609,
  "ython": 1610,
  "yandex": 1611,
  "]\\": 1612,
  "ed": 1613,
  "Ð½ÑĥÑĤ": 1614,
  "ÑĥÐ»": 1615,
  "ĠÐ±Ð°Ð»": 1616,
  "ind": 1617,
  "Ð·Ñĭ": 1618,
  "ĠÐ°Ð´": 1619,
  "Ð½Ð¸Ð¹": 1620,
  "ÑĢÑĥÐ¶": 1621,
  "ÐµÑģÑĤÐ¾": 1622,
  "Ð¸ÐºÐµ": 1623,
  "Ð°ÑİÑī": 1624,
  "âĢĻ": 1625,
  "ĠÐºÐ¾Ð¼Ð¿Ð»": 1626,
  "ĠÐºÐ»Ð°Ð²": 1627,
  "ĠÐ¿Ð¾Ð»ÑĥÑĩÐ°ÐµÑĤÑģÑı": 1628,
  "ĠÐ¾ÑģÐ½Ð¾Ð²": 1629,
  "ĠÐ´Ð¾Ð¼Ð°": 1630,
  "ĠÐ¿Ð¸ÑĤÐ¾Ð½": 1631,
  "ĠÑĤÐµÐ»ÐµÑĦ": 1632,
  "):\\": 1633,
  "11": 1634,
  "56": 1635,
  "]?": 1636,
  "he": 1637,
  "ig": 1638,
  "tw": 1639,
  "ÑĢÐ°Ñģ": 1640,
  "ÑģÐ°": 1641,
  "ÑĭÑĪ": 1642,
  "ĠÐ²ÑģÑĤÐ°Ð²": 1643,
  "ÑĤÐ¾Ñĩ": 1644,
  "Ġ'.": 1645,
  "Ð²Ðµ": 1646,
  "ĠÐ¸Ð³": 1647,
  "ĠÐ¼ÐµÐ½ÑĮ": 1648,
  "ĠÑĢÐ°Ð²Ð½Ð¾": 1649,
  "Ð°Ð²Ð°ÑĤÑĮ": 1650,
  "Ð½ÑĭÐ¼Ð¸": 1651,
  "ÐļÐ¾ÑĢ": 1652,
  "ÐŀÐ½Ð°": 1653,
  "ÑĢÑĥÑĤ": 1654,
  "ÐľÐ±": 1655,
  "ĠÐ¾ÑĤÐ´": 1656,
  "code": 1657,
  "Ġ15": 1658,
  "ÐºÐ¾Ðµ": 1659,
  "Ð¾ÑĩÐµ": 1660,
  "ÑĨÐ¸Ð¸": 1661,
  "ĠÐ±ÑĥÐ´ÑĥÑĤ": 1662,
  "ÐµÐ²Ð¾": 1663,
  "ĠÑģÐ¼Ð¾Ð³": 1664,
  "ĠÐ¿ÑĢÐ¾Ð²Ð¾Ð´": 1665,
  "rix": 1666,
  "ĠÐºÐ°ÑĢÑĤÐ¸Ð½": 1667,
  "ĠÑħÐ¾ÑĩÑĥ": 1668,
  "ĠÐ´Ð°Ð½Ð½ÑĭÐµ": 1669,
  "ĠÑįÐºÑĢÐ°Ð½": 1670,
  "ÐľÐ°Ð¼Ð°": 1671,
  "47": 1672,
  "file": 1673,
  "mf": 1674,
  "mo": 1675,
  "Ġ*": 1676,
  "Ð¾ÑĥÑĤ": 1677,
  "Ð»ÐµÐ½Ð¸Ñı": 1678,
  "ÐºÐ»Ð°Ð´": 1679,
  "ÑıÑħ": 1680,
  "ĠÐ½Ð°Ð´": 1681,
  "ÑĩÑĳÑĤ": 1682,
  "ĠÐ´Ð¾ÑĢ": 1683,
  "ĠÐ¼Ð±": 1684,
  "ĠÐ¼Ð°ÐºÑģÐ¸Ð¼": 1685,
  "ĠÐ±ÐµÑĢ": 1686,
  "Ð±ÑĥÑĢ": 1687,
  "ĠÑĥÐ²ÐµÑĢ": 1688,
  "Ð¢ÐµÐ±Ðµ": 1689,
  "ÑĳÑĪÑĮ": 1690,
  "Ð¸Ð»Ñı": 1691,
  "ÐŀÐ±": 1692,
  "ÐºÐ°Ñħ": 1693,
  "Ð¸Ð¼Ð¸": 1694,
  "ĠÐ»Ð¸Ð±Ð¾": 1695,
  "ĠÐ¿ÐµÑĢÐµÐ¼": 1696,
  "ĠÐ²ÑģÐµÑħ": 1697,
  "ĠÑĪÐºÐ¾Ð»": 1698,
  "ĠÑģÐ»Ð¾Ð¶Ð½Ð¾": 1699,
  "ĠÐ½Ð°Ð¿ÑĢ": 1700,
  "apps": 1701,
  "Ð½ÑĥÑĤÑĮ": 1702,
  "ssmf": 1703,
  "ĠÑĥÐ´Ð°Ð»": 1704,
  "iossmf": 1705,
  "ook": 1706,
  "Ð³Ð»ÑıÐ´Ð¸ÑĤ": 1707,
  "ĠF": 1708,
  "Ð»Ð°Ð³": 1709,
  "ÑıÑģ": 1710,
  "ĠÐ½Ð°Ðº": 1711,
  "ĠÐ½ÐµÐ¹": 1712,
  "ÑĤÐ¾ÑĢÐ¸": 1713,
  "Ð¼ÐµÐ½": 1714,
  "ĠÑĤÑĥÐ´Ð°": 1715,
  "ÐĿÐ°Ð¿": 1716,
  "ĠÐ¸ÑģÐº": 1717,
  "ĠÐ¿ÑĢÐ¸Ð²": 1718,
  "Ð¾Ð»Ð¾Ð²": 1719,
  "ĠÑĢÐ°Ð´": 1720,
  "Ð°Ð²Ð»Ð¸Ð²": 1721,
  "ÐĺÐ½": 1722,
  "ĠÐ³ÑĢÐ°ÑĦ": 1723,
  "ÐµÐ´ÑĮ": 1724,
  "ĠĠĠĠĠĠĠĠĠĠĠ": 1725,
  "Ġ12": 1726,
  "ĠÐ²ÑĭÐ¿Ð¾Ð»": 1727,
  "Ð¸Ð²Ð°ÑĤÑĮ": 1728,
  "ĠÑħÐ²Ð°ÑĤ": 1729,
  "Ð§ÐµÑĢÐµÐ·": 1730,
  "ÑĭÐ²Ð°ÑĤÑĮ": 1731,
  "ÑĭÐ²Ð°ÐµÑĤ": 1732,
  "ÐĳÐ»Ð¸Ð½": 1733,
  "ÑıÑĤÑģÑı": 1734,
  "all": 1735,
  "ĠÐ¿Ð¾ÑĩÑĤÐ¸": 1736,
  "Ð¿Ð»Ð°ÑĤ": 1737,
  "ĠÐ¿Ð°ÑĢÐ¾Ð»ÑĮ": 1738,
  "ĠÐ¿ÑĢÐ°Ð²Ð¸Ð»ÑĮÐ½Ð¾": 1739,
  "ĠÐ¼Ð°ÑĤÑĢÐ¸": 1740,
  "ÑĥÑīÐµÑģÑĤÐ²": 1741,
  "ĠÐ²ÑĤÐ¾ÑĢÐ¾Ð¹": 1742,
  "ĠÐ¿ÑĢÐ¸Ð´ÑĥÐ¼": 1743,
  "ĠÐºÐ²Ð°Ð´ÑĢÐ°ÑĤ": 1744,
  "21": 1745,
  "69": 1746,
  "85": 1747,
  "to": 1748,
  "ĠÐĹ": 1749,
  "ÐºÐ¾Ð²": 1750,
  "ÑıÐ¶": 1751,
  "ĠÑģÑĢÐ°Ð·Ñĥ": 1752,
  "ĠÑĤÐ²": 1753,
  "ĠÑĤÐµÑħ": 1754,
  "ÐµÑĤÐµ": 1755,
  "ÐµÑĤÑĭ": 1756,
  "ĠÐ¾ÑĦ": 1757,
  "Ð¿ÐµÐ´": 1758,
  "ĠÑĩÐµÑĢ": 1759,
  "Ð»Ð¸Ð¼": 1760,
  "Ð±Ð¸ÑĢ": 1761,
  "Ð¾ÑĢÐ´Ð¸Ð½": 1762,
  "Ð¸Ð½Ñĭ": 1763,
  "Ð·Ñı": 1764,
  "ÐŁÐ¾Ð½": 1765,
  "ĠÐ°Ð¿": 1766,
  "ÑĨÑĥ": 1767,
  "Ġ100": 1768,
  "Ð£Ð³Ñĥ": 1769,
  "ĠÐ¿ÑĢÐ¾ÑģÑĤ": 1770,
  "ÐµÑģÑĤÐ¸": 1771,
  "ĠÑģÐºÐ°Ð·Ð°Ð»": 1772,
  "ĠÐ´Ð²Ðµ": 1773,
  "ĠÐºÐ¾Ð¼Ð°Ð½Ð´": 1774,
  "ĠÐ²ÑĢÐµÐ¼ÐµÐ½Ð¸": 1775,
  "ĠÐ¾ÑģÐ¾Ð±": 1776,
  "ĠÐ½Ð°Ð¿Ð¸ÑģÐ°ÑĤÑĮ": 1777,
  "ÑĥÐ»ÑĮÑĤ": 1778,
  "ÑıÐ±ÑĢÑı": 1779,
  "ĠÐ±Ð¾Ð»ÐµÐµ": 1780,
  "))": 1781,
  "27": 1782,
  "67": 1783,
  "81": 1784,
  "89": 1785,
  "?']": 1786,
  "ver": 1787,
  "âī": 1788,
  "Ġco": 1789,
  "Ð¸ÑĢÑĥ": 1790,
  "ÑĢÐ°Ð±Ð¾ÑĤ": 1791,
  "Ð½Ð¾Ð¼Ñĥ": 1792,
  "ÑĥÐµÑĤ": 1793,
  "ÐºÐ¾Ð»ÑĮ": 1794,
  "ĠÑģÑİÐ´Ð°": 1795,
  "Ð´ÐµÑģÑĮ": 1796,
  "ĠÐºÐ¾Ñģ": 1797,
  "ĠÑĤÑĢÐ°Ð½": 1798,
  "ĠÐ¸Ñģ": 1799,
  "Ð°ÐºÐ¾Ð²": 1800,
  "ĠÐ´Ð¾Ðº": 1801,
  "ĠÐ´ÐµÐ±": 1802,
  "ĠÐ¼Ð°Ðº": 1803,
  "ĠÐ¼Ð¾Ð¹": 1804,
  "ÐµÐ½Ð´": 1805,
  "ĠÐ¿ÑĢÐ¾Ð¿": 1806,
  "ĠÐ±Ð»Ð¸": 1807,
  "ĠÐ±ÐµÐ»": 1808,
  "ĠÐµÐ´Ð¸Ð½": 1809,
  "Ð°Ð²Ð°Ð¹": 1810,
  "Ð°ÑĤÐµÐ»ÑĮÐ½Ð¾": 1811,
  "ÑĨÐµ": 1812,
  "ÐµÐ¹ÑģÑĤÐ²": 1813,
  "ĠÐ¾Ð±Ð½Ð¾Ð²": 1814,
  "ÑĨÐ¸Ñı": 1815,
  "Ð°Ð»ÑĮÐ½ÑĭÐµ": 1816,
  "rue": 1817,
  "Ð¥Ð¾Ñĩ": 1818,
  "ĠÐŁÐļ": 1819,
  "ĠÐ·Ð°Ð¿ÑĥÑģÑĤ": 1820,
  "ĠÑģÐ´ÐµÐ»Ð°Ð»": 1821,
  "ĠÐ½Ð¾Ð²ÑĭÐ¹": 1822,
  "ĠÑĩÐ¸ÑģÐ»Ð¾": 1823,
  "ĠÐ´ÑĥÐ¼Ð°Ñİ": 1824,
  "ĠÐ¼Ð°Ð»ÐµÐ½ÑĮ": 1825,
  "Ð¾Ð¼ÐµÑĤÑĢÐ¸": 1826,
  "Ġret": 1827,
  "ÐĴÐ¾Ð·Ð¼Ð¾Ð¶Ð½Ð¾": 1828,
  "ĠÑĥÐ²ÐµÑĢÐµÐ½": 1829,
  "âī¤": 1830,
  "ex": 1831,
  "ke": 1832,
  "un": 1833,
  "up": 1834,
  "ĉĠĠĠĠĠĠĠĠĠĠĠĠĠĠĠ": 1835,
  "Ġde": 1836,
  "ÑĢÐ°Ð»": 1837,
  "ĠÐ½Ð¸": 1838,
  "ÑĩÐµÑĢÐ°": 1839,
  "Ð¼Ð°": 1840,
  "ĠÐ¾ÑĢÐ¸": 1841,
  "ĠÐ¼ÐµÑģÑĤ": 1842,
  "ÐµÐ½Ð½ÑĭÐ¹": 1843,
  "ÐµÐ½Ð½ÑĭÐµ": 1844,
  "ÑĪÑĳÐ»": 1845,
  "Ð¾Ð»Ð½": 1846,
  "Ð°Ð½Ð°": 1847,
  "Ð¢Ð¾Ñĩ": 1848,
  "ÑĳÑĢ": 1849,
  "ĠÐ¿Ð¾ÑģÑĤÐ°Ð²": 1850,
  "ÐºÐ°Ñĩ": 1851,
  "ÐľÐ¾Ð¶ÐµÑĪÑĮ": 1852,
  "ÑĢÐ°Ñī": 1853,
  "ÐļÐ°ÐºÐ¸Ðµ": 1854,
  "Ð¸ÑĪÐ¸": 1855,
  "ÐµÐ½ÑĤÐ¾Ð²": 1856,
  "ĠÐŁÐ¸ÑĤ": 1857,
  "itter": 1858,
  "ĠÐ´Ð²ÑĥÑħ": 1859,
  "ĠÐ¿Ð¾ÐºÑĥÐ¿": 1860,
  "ÑıÐ¼Ð¸": 1861,
  "Ġnew": 1862,
  "ĠÐºÐ¾ÑĢÐ¿ÑĥÑģ": 1863,
  "ĠÐ¼Ð¾Ñī": 1864,
  "ĠÐ¸Ð½ÑĤÐµÑĢÐ½ÐµÑĤ": 1865,
  "ĠÐ½ÐµÐ¿ÑĢÐ°Ð²": 1866,
  "ĠÐ²Ð·ÑıÐ»": 1867,
  "ĠÐºÐ¾Ð»Ð¸Ñĩ": 1868,
  "ĠÑĦÑĥÐ½ÐºÑĨÐ¸Ð¸": 1869,
  "ĠÑģÐºÐ¾ÑĢÐµÐµ": 1870,
  "gram": 1871,
  "29": 1872,
  "iz": 1873,
  "ĉĠ": 1874,
  "ĠN": 1875,
  "ĠR": 1876,
  "Ġ}": 1877,
  "ĠÐ²Ð¾Ð¿": 1878,
  "ĠÐ²ÐºÐ»ÑİÑĩ": 1879,
  "ĠÑģÐ²ÐµÑĤ": 1880,
  "ĠÑģÐ½Ð°ÑĩÐ°Ð»Ð°": 1881,
  "Ð²ÐµÐ¹": 1882,
  "ÐµÑĢÐ³": 1883,
  "ĠÐ´Ð¸": 1884,
  "ĠÐ´Ð¾Ð¿": 1885,
  "ÐµÐ½Ñģ": 1886,
  "Ð°Ð»Ð¾ÑģÑĮ": 1887,
  "ĠÑĩÑĤÐ¾Ð±": 1888,
  "ĠÑĢÐ¾ÑĥÑĤ": 1889,
  "Ð¾ÑĤÐµÐ»": 1890,
  "ĠÐµÑĳ": 1891,
  "ÐŁÐ¾Ð»": 1892,
  "Ð¾Ð¹Ð´": 1893,
  "ÐµÐ´Ð¸Ð½": 1894,
  "ÐµÐ½Ð¸ÐµÐ¼": 1895,
  "ĠÑģÑĤÑĢÐ°Ð½": 1896,
  "ĠÐ±ÑĭÑģÑĤÑĢ": 1897,
  "ĠÑıÐ·Ñĭ": 1898,
  "ĠÑĤÐ°ÐºÐ¸Ðµ": 1899,
  "Ġ16": 1900,
  "ĠÐ¿ÐµÑĢÐµÐº": 1901,
  "Ð°Ð¶Ð¸": 1902,
  "ÑĥÑİÑī": 1903,
  "Ð°ÑħÐ°": 1904,
  "Ð»ÑİÑģ": 1905,
  "ÐĳÐµÐ·": 1906,
  "ĠÐ¿Ð¾Ð½ÑıÑĤÐ½Ð¾": 1907,
  "ĠÑĢÐ°Ð±Ð¾ÑĤÐ°ÑĤÑĮ": 1908,
  "ĠÑĨÐ¸Ðº": 1909,
  "ĠÐºÐ¾Ð¾ÑĢÐ´Ð¸Ð½": 1910,
  "ĠÐ·Ð°Ð¿Ð¸Ñģ": 1911,
  "ĠÐ¾Ð¿ÑĢÐµÐ´": 1912,
  "ĠĠĠĠĠĠĠĠĠĠĠĠĠĠĠĠĠĠĠĠĠĠĠĠĠĠĠĠĠĠĠĠ": 1913,
  "ĠÐ¿Ð»Ð°ÑĤ": 1914,
  "urn": 1915,
  "ĠÐ´Ð¾Ð»Ð¶ÐµÐ½": 1916,
  "ÑģÑĤÐ°Ð½Ð°Ð²Ð»Ð¸Ð²": 1917,
  "ĠÑĢÐ°ÑģÐ¿": 1918,
  "ĠÐ²ÐµÑĢÑģ": 1919,
  "ĠÑģÐ²ÑıÐ·": 1920,
  "ĠÐ½Ð°Ð·Ð²": 1921,
  "ĠÐ¾Ð±ÑīÐµÐ¼": 1922,
  "ĠÑģÐ»ÑĥÑĩÐ°Ðµ": 1923,
  "-%": 1924,
  "63": 1925,
  "83": 1926,
  "OS": 1927,
  "ab": 1928,
  "gle": 1929,
  "po": 1930,
  "ĉĠĠĠĠĠĠĠĠĠĠĠĠĠĠĠĠĠĠĠĠĠĠĠ": 1931,
  "ĠH": 1932,
  "Ġd": 1933,
  "Ġor": 1934,
  "ĠÐ½Ð°Ð¼": 1935,
  "ĠÐ²Ð°ÑĪ": 1936,
  "ĠÐ¸ÑĤ": 1937,
  "Ð°ÐºÑĤ": 1938,
  "ĠÐ´Ð»Ð¸": 1939,
  "Ð°Ð»Ð»": 1940,
  "ÑģÑĤÐ²Ð¾": 1941,
  "ĠÐµÐµ": 1942,
  "ĠÑįÐ½": 1943,
  "Ð°ÑĤÐ¸Ð²": 1944,
  "Ð°ÑģÐº": 1945,
  "Ð°ÑģÐ¸Ð±Ð¾": 1946,
  "Ð½Ð¸Ðµ": 1947,
  "ÑĦÑĦ": 1948,
  "ĠÐ»ÐµÑĤ": 1949,
  "ÑĥÑĤÐ¸": 1950,
  "Ð£Ð¶Ðµ": 1951,
  "ĠÐ²ÑĭÑĪ": 1952,
  "Ð¸Ð²Ð°ÐµÑĤ": 1953,
  "ĠÐ¿ÐµÑĢÐµÐ¿": 1954,
  "ĠÐ¿ÑĢÐ¾Ð¸Ð·": 1955,
  "ÐŁÑĢÐ¾": 1956,
  "ĠÑĨÐ¸ÑĦ": 1957,
  "ĠÐºÑĢÐ¾Ð¼Ðµ": 1958,
  "ĠÐ¿Ð¾Ð¼ÐµÐ½Ñı": 1959,
  "max": 1960,
  "ĠÐ´Ð¾ÑģÑĤÑĥÐ¿": 1961,
  "ÑİÑĤÑģÑı": 1962,
  "Ð¿Ð¸Ð°Ð´": 1963,
  "ĠÐ¿ÑĢÐµÐ·ÐµÐ½ÑĤÐ°ÑĨÐ¸": 1964,
  "Ð°Ð½ÑĮÑĪÐµ": 1965,
  "status": 1966,
  "twitter": 1967,
  "Ð»Ð¸Ð¼Ð¿Ð¸Ð°Ð´": 1968,
  "ĠÐ²Ð¾Ð¿ÑĢÐ¾Ñģ": 1969,
  "--": 1970,
  "](": 1971,
  "book": 1972,
  "goo": 1973,
  "mar": 1974,
  "unt": 1975,
  "vk": 1976,
  "ys": 1977,
  "Ġ8": 1978,
  "ÑĥÐ¶": 1979,
  "ÑıÑī": 1980,
  "ĠÐ½ÐµÐ¼": 1981,
  "ĠÑģÐ´": 1982,
  "ĠÑģÐ¸Ð»ÑĮÐ½Ð¾": 1983,
  "Ð²Ð¾Ð½": 1984,
  "ĠÐ¿ÑĢÐ¸ÑĪ": 1985,
  "ĠÑĩÐ¸ÑĤ": 1986,
  "ĠÐ½ÐµÑģÐºÐ¾Ð»ÑĮÐºÐ¾": 1987,
  "Ð¸Ð½ÑĥÑģ": 1988,
  "ĠÑĥÐ±": 1989,
  "ĠÑįÐ»ÐµÐ¼": 1990,
  "ÐŀÐ½Ð¾": 1991,
  "Ð¡Ð°Ð¼": 1992,
  "ÑĦÐ¸Ð³": 1993,
  "Ð¸Ð¼Ð¾": 1994,
  "ĠÐ»Ð°Ð´Ð½Ð¾": 1995,
  "ĠÑĤÐ°ÐºÐ°Ñı": 1996,
  "ÐµÑģÑģ": 1997,
  "ĠÑĦÐ¸Ð·": 1998,
  "ĠÐ²ÑĭÑħÐ¾Ð´": 1999,
  "Ð°ÑİÑģÑĮ": 2000,
  "ÑĢÐ°ÑĥÐ·": 2001,
  "ĠÐ±ÑĥÐ´ÐµÑĪÑĮ": 2002,
  "ĠÐ·Ð½Ð°ÑĩÐ¸ÑĤ": 2003,
  "ÑĢÐ°Ð²Ð½": 2004,
  "ÑĳÑĤÑģÑı": 2005,
  "ĠÐ¿Ð¾ÐºÐ°Ð·ÑĭÐ²": 2006,
  "ĠÐ¼Ð¾Ð³ÑĥÑĤ": 2007,
  "Ð½Ð¸ÐºÐ¾Ð²": 2008,
  "ĠÐºÐ°Ð¶ÐµÑĤÑģÑı": 2009,
  "Ð¾Ð±ÑĢÐ°Ð¶": 2010,
  "ĠÐ´Ð¾Ð¼Ð¾Ð¹": 2011,
  "ĠÐ·Ð°Ð´Ð°ÑĩÐ¸": 2012,
  "Ð½Ð´ÐµÐºÑģ": 2013,
  "youtube": 2014,
  "ĠÑģÐ¸ÑģÑĤÐµÐ¼": 2015,
  "ÐŁÐ¾Ð¿ÑĢÐ¾Ð±ÑĥÐ¹": 2016,
  "Ġreturn": 2017,
  "100": 2018,
  "32": 2019,
  "37": 2020,
  "62": 2021,
  "::": 2022,
  "qu": 2023,
  "ul": 2024,
  "ĠÐĽ": 2025,
  "ĠÐŃ": 2026,
  "Ð¸Ð½Ð¾": 2027,
  "ÑĥÐ²": 2028,
  "ÐºÐ¾Ð½": 2029,
  "ĠÐ²ÑħÐ¾Ð´": 2030,
  "ĠÑģÐµÑĤ": 2031,
  "Ð´Ð¶": 2032,
  "ĠÐºÐ°Ð¼": 2033,
  "ĠÐºÐ°Ñĩ": 2034,
  "ĠÑĤÐµÑĢ": 2035,
  "ÐµÑĤÐ°": 2036,
  "ÐµÑĤÑĢ": 2037,
  "ĠÐ¾Ð»Ð¸Ð¼Ð¿Ð¸Ð°Ð´": 2038,
  "ĠÐ¼Ð°ÑĢ": 2039,
  "ÑģÑĤÐ¸Ðº": 2040,
  "Ð»Ð¸ÑĤÑĮ": 2041,
  "ĠÑĢÐ¾Ñģ": 2042,
  "ĠÑĢÐ°Ð²": 2043,
  "Ð°Ð½Ð´Ð°": 2044,
  "Ð¾ÑĢÑĤÐ¸ÑĢÐ¾Ð²": 2045,
  "Ð¸Ð½ÑĮ": 2046,
  "ÐµÐ»Ð¾Ð²": 2047,
  "Ð¾ÑģÐº": 2048,
  "Ð¸ÑĤÐµÐ»ÑĮÐ½Ð¾": 2049,
  "Ð°Ð¹Ð¼": 2050,
  "Ð°Ð±Ð¾Ñĩ": 2051,
  "ĠÑĦÐ¾ÑĤ": 2052,
  "ĠÑĦÐ¸Ð³": 2053,
  "ĠÑĦÐ¸Ð»ÑĮ": 2054,
  "ÐµÐ±Ñı": 2055,
  "ÑĤÐ¾ÑĢÑĭ": 2056,
  "ĠÐ¿ÑĢÐ¾ÑĨ": 2057,
  "ĠÐ¾Ð´Ð½Ð¾": 2058,
  "ĠÐ¾Ð´Ð½Ð¾Ð¹": 2059,
  "Ð°Ð»Ð¸Ð·": 2060,
  "ĠÐ¿Ð¾ÑģÑĩÐ¸ÑĤ": 2061,
  "ĠÑĨÐµÐ½ÑĤ": 2062,
  "ĠÐ´ÐµÐ»Ð°ÐµÑĤ": 2063,
  "ĠÐ¾Ð¿ÐµÑĢ": 2064,
  "ĠÐ·Ð°ÐºÐ¾Ð½": 2065,
  "Ġma": 2066,
  "Ð¸Ð½ÑĥÑĤÑĮ": 2067,
  "ÐŁÐ¾ÑįÑĤÐ¾Ð¼Ñĥ": 2068,
  "ĠÐ²Ð¸Ð´ÐµÐ»": 2069,
  "ĠÐºÐ°Ð¶Ð´ÑĭÐ¹": 2070,
  "ĠÐ°ÐºÐºÐ°": 2071,
  "ĠÐ¿ÑĢÐ¸Ð¼ÐµÑĢÐ½Ð¾": 2072,
  "shop": 2073,
  "Ð±ÑĥÑĢÐ³": 2074,
  "200": 2075,
  "57": 2076,
  "64": 2077,
  "99": 2078,
  "nfor": 2079,
  "sort": 2080,
  "vo": 2081,
  "wa": 2082,
  "Ġg": 2083,
  "Ġdi": 2084,
  "thub": 2085,
  "ĠÐ¿Ð¾Ð±": 2086,
  "ĠÐ½Ð¸Ð¼": 2087,
  "ĠÐ²Ð²Ð¾Ð´": 2088,
  "ĠÑģÐ±": 2089,
  "Ð¼ÐµÐ½ÑĤ": 2090,
  "ÐµÑĢÐ¾Ð¼": 2091,
  "ĠÐ´ÐµÑĤ": 2092,
  "ĠÐ´ÐµÐ¹ÑģÑĤÐ²": 2093,
  "Ð¾Ð»Ð¾Ð³": 2094,
  "ÐĲÐ¥": 2095,
  "ĠÐ½ÐµÐ»ÑĮ": 2096,
  "ĠÑĢÐµÐ´": 2097,
  "Ð³Ð±": 2098,
  "ÐµÐ»Ñı": 2099,
  "Ð¾ÑģÐ¾Ð±": 2100,
  "Ð°ÑĤÐµ": 2101,
  "Ð°ÑĤÐ¸ÑĩÐµÑģ": 2102,
  "pend": 2103,
  "ÐļÐ¾Ð½": 2104,
  "ÐļÐ¾Ð³Ð´Ð°": 2105,
  "ÐµÐ·Ð´Ðµ": 2106,
  "ĠÑĤÐ¾ÑĤ": 2107,
  "ÐķÐ£": 2108,
  "ĠÑħÐ¾Ð´": 2109,
  "ĠÐ¿ÑĢÐ¾ÑħÐ¾Ð´Ð¸ÑĤ": 2110,
  "ĠÐ±ÑĥÐ´ÑĤÐ¾": 2111,
  "ĠÐ¾Ð´Ð½Ð°": 2112,
  "ĠÐ¸Ð½ÑĤ": 2113,
  "Ð¾ÑģÑĤÐ°Ð²": 2114,
  "ĠÑģÐ¿Ð¸Ñģ": 2115,
  "ĠÑģÐ¿ÑĢÐ¾Ñģ": 2116,
  "ÐłÐ°Ð·": 2117,
  "Ð½ÑıÑĤÑĮ": 2118,
  "art": 2119,
  "ÐµÐ¶Ð´Ñĥ": 2120,
  "Ð°ÑĨÐ¸Ð¸": 2121,
  "Ð°ÑĨÐ¸Ñı": 2122,
  "ĠÐºÐ¾ÑĢÐ¾Ð±": 2123,
  "ĠÑĩÐ°ÑģÑĤÑĮ": 2124,
  "ĠÐºÑĢÑĥÑĤÐ¾": 2125,
  "Ð¡ÐºÐ¾ÑĢ": 2126,
  "ĠÐ¿ÑĢÐ¾Ð±Ð»ÐµÐ¼Ð°": 2127,
  "ĠÑĦÐ°Ð¹Ð»": 2128,
  "ĠÐ¸ÑģÐ¿Ð¾Ð»ÑĮÐ·Ð¾Ð²Ð°ÑĤÑĮ": 2129,
  "ĠÑģÑģÑĭÐ»": 2130,
  "ĠÐ½Ð¸ÐºÐ°Ðº": 2131,
  "ĠÐ¾Ð±ÑĭÑĩ": 2132,
  "github": 2133,
  "ĠÐ¼ÐµÐ½ÑĮÑĪÐµ": 2134,
  "ĠÐ¸ÑĤÐ¾Ð³": 2135,
  "google": 2136,
  "ĠÐ½ÐµÐ»ÑĮÐ·Ñı": 2137,
  "65": 2138,
  "BD": 2139,
  "dri": 2140,
  "ev": 2141,
  "ele": 2142,
  "pa": 2143,
  "pre": 2144,
  "ĠO": 2145,
  "Ġwhile": 2146,
  "ĠÐ£": 2147,
  "Ð¾ÑĤÑĮ": 2148,
  "ÐºÐ°ÑĤÑĮ": 2149,
  "ĠÐ½Ð°Ð»": 2150,
  "ĠÐ½Ð¾Ð¼": 2151,
  "ĠÑģÑĥÑīÐµÑģÑĤÐ²": 2152,
  "ÐĿÐ¸ÑĩÐµÐ³Ð¾": 2153,
  "ÐµÑĢÑĥ": 2154,
  "ĠÐ´ÑĢ": 2155,
  "ĠÐ¼Ð°ÑĪ": 2156,
  "ÐµÐ½Ñĭ": 2157,
  "Ð½Ð¾ÑģÑĤÐ¸": 2158,
  "Ð°Ð»Ð¸ÑģÑĮ": 2159,
  "ÑģÑĤÑĢÑĥ": 2160,
  "Ð±Ñĭ": 2161,
  "Ð³Ð¾Ð½": 2162,
  "ĠÐµÐ¼Ñĥ": 2163,
  "Ð¢ÐµÐ¿ÐµÑĢÑĮ": 2164,
  "ÐŁÐ¾ÐºÐ°": 2165,
  "ÐĴÑģ": 2166,
  "ÐĶÐ°Ð²Ð°Ð¹": 2167,
  "ÐļÑĢÐ°Ñģ": 2168,
  "ĠÐºÐ°ÐºÐ¾Ðµ": 2169,
  "Ð°ÑĢÑĤ": 2170,
  "ĠÐ³ÑĢ": 2171,
  "ÐµÐ¹Ñģ": 2172,
  "ÐµÑĪÐµÐ²": 2173,
  "ĠÐ²ÑĭÑģ": 2174,
  "ÐķÐķ": 2175,
  "Ð°Ð½Ð¸Ð¸": 2176,
  "Ð°Ð½Ð¸Ð¿": 2177,
  "ÐļÐ°ÐºÐ°Ñı": 2178,
  "ĠÑĢÐ°Ð·Ð½Ð¸": 2179,
  "ĠÑģÐºÐ°Ð·": 2180,
  "ĠÐ¿Ð¾Ð»Ð¸ÑĤ": 2181,
  "ÐĹÐ½Ð°": 2182,
  "ĠÑģÐ»Ð¾Ð²": 2183,
  "atch": 2184,
  "Ð¸ÑħÐ°": 2185,
  "append": 2186,
  "ĠÑģÐ°Ð¼Ð¾Ðµ": 2187,
  "ĠÐ½Ð°Ð¿ÑĢÐ°Ð²": 2188,
  "ĠÐ¿Ð¾Ð¿ÑĢÐ¾Ð±": 2189,
  "ĠÐ¸ÑģÐ¿ÑĢÐ°Ð²": 2190,
  "ÐĴÐ¾Ð¾Ð±ÑīÐµ": 2191,
  "ÑģÑĤÑĢÐ¾Ð¸ÑĤÑĮ": 2192,
  "ĠÑģÐºÐ¾ÑĢÐ¾ÑģÑĤÑĮ": 2193,
  "ĠÐ·Ð°Ð²ÑĤÑĢÐ°": 2194,
  "ĠÑģÐ¼Ð¾ÑĤÑĢÐµÑĤÑĮ": 2195,
  "ĠÐ¸Ð´ÐµÐµ": 2196,
  "ÐŁÐ¾ÑĤÐ¾Ð¼Ñĥ": 2197,
  "ĠÐ¸Ð½ÑĤÐµÑĢÐµÑģÐ½Ð¾": 2198,
  "ĠÐ¿Ð¸ÑģÐ°ÑĤÑĮ": 2199,
  "ĠÐ¾ÑĤÐºÑĥÐ´Ð°": 2200,
  "Ð«Ðķ": 2201,
  "ÐļÐ¾ÑĢÐ¾ÑĩÐµ": 2202,
  "ÐŁÐ¾Ð½ÑıÐ»": 2203,
  "ĠÐ°ÐºÐºÐ°ÑĥÐ½": 2204,
  "drive": 2205,
  "ac": 2206,
  "bo": 2207,
  "bu": 2208,
  "ip": 2209,
  "lta": 2210,
  "og": 2211,
  "ĠL": 2212,
  "ĠðŁ": 2213,
  "ÑĢÐµÐ½": 2214,
  "ÑĢÐ¾Ðº": 2215,
  "ÑģÐ±": 2216,
  "ÑģÐºÐ¸Ð¹": 2217,
  "Ð½Ð¾Ð¶": 2218,
  "ĠÐ¿Ð¾Ð³": 2219,
  "ĠÐ¿Ð»Ð°": 2220,
  "ĠÐ²Ð¼": 2221,
  "ĠÐ²ÐµÐ´ÑĮ": 2222,
  "ĠÑģÐºÐ°Ñĩ": 2223,
  "ĠÑĤÐµÐº": 2224,
  "Ð²ÐµÐ´": 2225,
  "ĠÐ´Ð°Ð»Ð¸": 2226,
  "ĠÐ¼Ð°Ð½Ð¸Ð¿": 2227,
  "Ð¿Ð°Ð´": 2228,
  "ÐĲÐ°Ð°": 2229,
  "ĠÐ±Ð¸Ð±": 2230,
  "ĠÐ±ÑĢÐ°ÑĥÐ·": 2231,
  "Ð¾Ð¼ÐµÐ½ÑĤ": 2232,
  "ĠÑĩÐµÑĤ": 2233,
  "ĠÐ½ÐµÑĳ": 2234,
  "Ð»Ð¸ÑĩÐ½Ð¾": 2235,
  "ĠÑĢÐµÐº": 2236,
  "ĠÑĥÐº": 2237,
  "tele": 2238,
  "Ð¶ÐµÐ½": 2239,
  "ÐºÐ¸Ð´": 2240,
  "ÐļÑĤÐ¾": 2241,
  "ÑĨÐµÐ½": 2242,
  "Ð»ÑıÐµÑĤÑģÑı": 2243,
  "ĠÑģÑĤÐ°Ð½": 2244,
  "ĠÑĤÐ°ÐºÐ¾Ð³Ð¾": 2245,
  "Ġ14": 2246,
  "ÐµÐ³Ð´Ð°": 2247,
  "ĠÑĦÐ¾ÑĤÐ¾": 2248,
  "ĠÐ¶ÐµÐ»": 2249,
  "ÐĿÐµÐ°": 2250,
  "ÑĨÐ¸Ð¿": 2251,
  "ĠÑħÐ¾ÑĤÐµÐ»": 2252,
  "Ð°Ð½Ð¸Ñİ": 2253,
  "ÑĢÐ°Ð²Ð½Ð¸": 2254,
  "ĠÑĪÐ°ÑĢ": 2255,
  "ĠÑģÐ¿Ð¾ÑģÐ¾Ð±": 2256,
  "ÑģÐºÐ¾ÑĢ": 2257,
  "ĠÐ¿Ð¾ÑĤÐ¾Ð¼Ñĥ": 2258,
  "ĠÐ¿ÑĢÐ¸ÐµÐ´": 2259,
  "ĠÐºÐ¾ÑĤÐ¾ÑĢÑĭÐµ": 2260,
  "Ð½ÑĥÐ»": 2261,
  "Ð½Ð°ÑĩÐµ": 2262,
  "ĠÐ¸Ð¼Ðµ": 2263,
  "Ð¾Ð±ÑĢÐ°ÑĤÑĮ": 2264,
  "Ð½Ð¾ÑģÑĤÑĮÑİ": 2265,
  "ĠÐ¿ÑĢÐ¾Ð³ÑĢÐ°Ð¼Ð¼Ð¸ÑĢÐ¾Ð²": 2266,
  "ĠÐ´Ð¾ÑģÑĤÐ°Ð²": 2267,
  "ĠÑħÐ¾ÑĩÐµÑĪÑĮ": 2268,
  "ĠÐ´Ð°Ð½Ð½ÑĭÑħ": 2269,
  "Ġ<=": 2270,
  "note": 2271,
  "ÍĵÍĵÍĵÍĵÍĵÍĵÍĵÍĵ": 2272,
  "ĠÐ¼Ð°Ð³Ð°Ð·": 2273,
  "ĠÑģÑĤÐ¾ÑĢÐ¾Ð½Ñĭ": 2274,
  "ĠÐºÐ¾Ð»Ð¸ÑĩÐµÑģÑĤÐ²Ð¾": 2275,
  "mark": 2276,
  "ĠÐ¼Ð°Ð½Ð¸Ð¿ÑĥÐ»Ñı": 2277,
  "35": 2278,
  "55": 2279,
  "70": 2280,
  "94": 2281,
  "ak": 2282,
  "ca": 2283,
  "cat": 2284,
  "ix": 2285,
  "net": 2286,
  "ust": 2287,
  "ÑĤÐ¸Ð¼": 2288,
  "Ð¸Ñİ": 2289,
  "Ð¸ÑĢÐ°": 2290,
  "ÑĢÐµÐ¼": 2291,
  "ÑĢÐµÐ·": 2292,
  "the": 2293,
  "Ð»Ð¾Ðº": 2294,
  "ÐºÑģ": 2295,
  "ĠÐ½Ð°Ð·ÑĭÐ²Ð°ÐµÑĤÑģÑı": 2296,
  "ĠÐ²ÐµÐº": 2297,
  "ĠÐ²ÑĩÐµÑĢÐ°": 2298,
  "ĠÑģÐµÐº": 2299,
  "ĠÑģÐ¾Ð¿": 2300,
  "ĠÐºÑĥÑĩ": 2301,
  "Ð²Ð°": 2302,
  "ÐĿÐ°Ð²ÐµÑĢÐ½Ð¾Ðµ": 2303,
  "ĠÐ¼ÐµÐ¶Ð´Ñĥ": 2304,
  "ĠÐ¿ÑĢÐ¾Ñĩ": 2305,
  "Ð¾Ð²ÑĭÐ¹": 2306,
  "ÑħÐ¾Ð¶Ðµ": 2307,
  "ĠÐ·Ð°Ð»": 2308,
  "ĠÑĢÑĥ": 2309,
  "Ð°Ð½Ñĭ": 2310,
  "ĠÑĥÑģÐ¿": 2311,
  "ÑīÐ¸": 2312,
  "ĠÐ°Ñģ": 2313,
  "ÐŀÐ´": 2314,
  "ÐŀÐ¹": 2315,
  "ĠÐºÐ°ÐºÐ¾Ð¼": 2316,
  "ÐľÐ°ÑĤ": 2317,
  "ĠÐ»Ð¸Ð½Ñĥ": 2318,
  "ĠÐ²ÑģÐµÐ³Ð´Ð°": 2319,
  "ÐŃÑħ": 2320,
  "ĠÐ¿Ð¾Ð´Ñģ": 2321,
  "ĠÐ¿Ð¾Ð´Ð¿Ð¸Ñģ": 2322,
  "Ð°Ð»ÑĮÐ½Ð¾Ð³Ð¾": 2323,
  "ÑĥÐ¼Ð°Ñİ": 2324,
  "ĠÑĢÐ°Ð·Ð½ÑĭÐµ": 2325,
  "ÑĭÐ²Ð°ÐµÑĤÑģÑı": 2326,
  "ĠÑĪÐµÑģÑĤ": 2327,
  "ÐŁÑĢÐ¸Ð½": 2328,
  "ĠÑģÐ¿ÑĢÐ°ÑĪ": 2329,
  "ĠÐ´ÑĢÑĥÐ³Ð¸Ðµ": 2330,
  "ĠÐ½ÑĥÐ¶Ð½Ð°": 2331,
  "ĠÐ·Ð°ÐºÐ°Ð·": 2332,
  "ĠÐºÐ¾ÑĤÐ¾ÑĢÐ°Ñı": 2333,
  "che": 2334,
  "ĠÐ¿ÐµÑĢÐ²ÑĭÐ¹": 2335,
  "ÐŁÑĢÐ¸Ð²ÐµÑĤ": 2336,
  "ĠÐ°ÑĢÐ´Ñĥ": 2337,
  "ĠÑģÐ²Ð¾Ð¹": 2338,
  "ĠÐ°Ð¹Ð¿ÐµÐ´": 2339,
  "ĠÐ²Ð·ÑıÑĤÑĮ": 2340,
  "Ġelif": 2341,
  "ĠÑģÐ°Ð¹ÑĤ": 2342,
  "Ð¾Ð²ÑģÐºÐ¸Ð¹": 2343,
  "ĠÐ´Ð¾Ð±Ð°Ð²": 2344,
  "ÐŁÐµÑĢÐ²": 2345,
  "ĠÑĤÐ¾ÑĩÐºÐ¸": 2346,
  "ĠÑĨÐµÐ»Ð¾Ð¼": 2347,
  "ĠÐºÐ¾Ð¼Ð¿Ð»ÐµÐºÑģ": 2348,
  "ĠÐºÐ¾ÑģÐ¸Ð½ÑĥÑģ": 2349,
  "ÐķÐ£Ð«Ðķ": 2350,
  "ĠÐ¿Ð¾Ð»Ð¸ÑĤÐµÑħ": 2351,
  "market": 2352,
  "),": 2353,
  "BA": 2354,
  "da": 2355,
  "ect": 2356,
  "ho": 2357,
  "lit": 2358,
  "pp": 2359,
  "Ð¦": 2360,
  "Ġ%": 2361,
  "Ġ:": 2362,
  "Ð¾Ñī": 2363,
  "Ð»Ð°Ñģ": 2364,
  "Ð»ÐµÐ¹": 2365,
  "ÐºÑĤ": 2366,
  "ĠÐ¿Ð¾Ð²Ð¾ÑĢ": 2367,
  "ĠÐ¿ÑĭÑĤ": 2368,
  "ÑıÐ½": 2369,
  "ÑıÐ³": 2370,
  "ÑĩÐµ": 2371,
  "ĠÐ²Ð½ÑĥÑĤ": 2372,
  "ĠÑģÑĥÐ¼": 2373,
  "ĠÑģÐµÐ±Ñı": 2374,
  "Ð´ÐµÑĢÐ¶": 2375,
  "Ð²Ð¾ÑĢ": 2376,
  "ĠÐ¾ÑĢ": 2377,
  "ĠÐ¾ÑģÑĤÐ°Ð²": 2378,
  "ĠÐ¾Ð³ÑĢ": 2379,
  "ĠÐ´Ð¸Ñģ": 2380,
  "ĠÐ´Ð¸ÑģÐº": 2381,
  "ĠÐ¼Ð¸Ðº": 2382,
  "ĠÐ¿ÑĢÐµÐ¿": 2383,
  "Ð¾Ð»Ð»": 2384,
  "ĠÑĢÐ¸Ñģ": 2385,
  "ÐŁÐ¾Ð¼": 2386,
  "test": 2387,
  "Ð°ÑĤÐ°": 2388,
  "Ð¸Ð»Ð°ÑģÑĮ": 2389,
  "ĠÐ°Ð¼": 2390,
  "Ð½Ð¸ÐºÐ°": 2391,
  "ÐµÐ´Ð¸": 2392,
  "ÐľÐ¸ÑħÐ°": 2393,
  "ĠÐ¾ÑĤÐ²": 2394,
  "ĠÐ¾ÑĤÐ»Ð¸Ñĩ": 2395,
  "ĠÐ²ÑĭÐ³Ð»ÑıÐ´Ð¸ÑĤ": 2396,
  "ÑĥÑĩÐ¸ÑĤ": 2397,
  "ĠÐ¿ÐµÑĢÐµ": 2398,
  "ĠÐ¿ÐµÑĢÐµÐ²": 2399,
  "ĠÐ¿ÑĢÐ¾ÑĦ": 2400,
  "std": 2401,
  "ÑĥÐ¼ÐµÐ½ÑĤ": 2402,
  "ĠÑĢÐ°Ð·Ð±": 2403,
  "Ð¸ÑĢÑĤÑĥ": 2404,
  "Ġ-=": 2405,
  "ÐµÐ½ÑĤÐ¸Ð»Ñı": 2406,
  "ĠÑįÑĤÐ¸Ð¼": 2407,
  "ĠÑģÐ°Ð¼Ð¾Ð¼": 2408,
  "ĠÐ´ÑĢÑĥÐ³Ð¾Ðµ": 2409,
  "Ġ30": 2410,
  "ÑĥÐ»ÑıÑĢ": 2411,
  "ĠÐ¾Ð´Ð¸Ð½Ð°ÐºÐ¾Ð²": 2412,
  "ĠÐ¸Ð¼ÐµÐ½Ð½Ð¾": 2413,
  "ĠÐ³Ð¾Ð²Ð¾ÑĢÐ¸Ð»": 2414,
  "Ð¡ÑĤÐ¾Ð¿": 2415,
  "ĠÑģÑĤÑĢÐ¾ÐºÐ¸": 2416,
  "ĠÐ½Ð°Ð¿Ð¸ÑģÐ°Ð»": 2417,
  "Ð¾Ð½ÐµÑĨ": 2418,
  "ĠÐ¿Ð¾ÑĢÑĤ": 2419,
  "ÐĴÐ¾Ñĥ": 2420,
  "ĠÑĥÐ³Ð¾Ð»": 2421,
  "ĠÐ¸Ð³ÑĢÑĭ": 2422,
  "ĠÐ¾Ð±ÑĬÑıÑģ": 2423,
  "ĠÐ·Ð°Ð½ÑıÑĤÐ¸": 2424,
  "kost": 2425,
  "ÐŁÐ¾ÑĤÐ¾Ð¼": 2426,
  "ĠÐ·Ð½Ð°Ðº": 2427,
  "ĠÑģÐ¸Ð¼Ð²": 2428,
  "ĠÐ·Ð°Ð³ÑĢÑĥÐ·": 2429,
  "Ð¡ÐºÐ¾ÑĢÐµÐµ": 2430,
  "check": 2431,
  "')\\": 2432,
  "84": 2433,
  "97": 2434,
  "ia": 2435,
  "ir": 2436,
  "ly": 2437,
  "new": 2438,
  "ore": 2439,
  "watch": 2440,
  "ĠW": 2441,
  "ÑĢÐµÑģ": 2442,
  "ÑĢÐ°Ð¶": 2443,
  "Ð½Ð¸Ð»": 2444,
  "Ð»Ð°Ð¹Ð½": 2445,
  "ĠÐ½Ð°Ð±": 2446,
  "ĠÐ²Ð¾Ð´": 2447,
  "ĠÐºÑģÑĤÐ°ÑĤÐ¸": 2448,
  "ÐµÑĢÐ¸": 2449,
  "ĠÐ¼Ð¾Ð¼ÐµÐ½ÑĤ": 2450,
  "Ð¾Ð»Ð¸Ñģ": 2451,
  "ÑİÑģÑĮ": 2452,
  "ĠÑĩÐµÐ»Ð¾Ð²": 2453,
  "Ð»Ð¸ÑĪ": 2454,
  "ĠÐ·Ð°Ñħ": 2455,
  "ĠÑĢÐ°Ð½ÑĮÑĪÐµ": 2456,
  "ĠÑĥÐ·": 2457,
  "ĠÑĥÑģÑĤÑĢÐ¾Ð¹": 2458,
  "Ð¢Ðĺ": 2459,
  "ÐĿÑĥÐ¶": 2460,
  "Ð¾Ð¶Ð°Ð»": 2461,
  "ÐĺÐ´Ð¸": 2462,
  "ÐºÐ¸Ð¼": 2463,
  "ÐĶÐ°Ð¶Ðµ": 2464,
  "Ð½Ð¸Ñħ": 2465,
  "Ð°ÑĢÐ¾Ð²": 2466,
  "ĠÐ³Ð¸ÑĤ": 2467,
  "ĠÐ¿Ð¾ÑįÑĤÐ¾Ð¼Ñĥ": 2468,
  "Ð¡Ð»": 2469,
  "ÑĢÑĥÑİ": 2470,
  "con": 2471,
  "Ð¸ÐºÑģ": 2472,
  "Ð°Ð»ÑĮÑĪÐµ": 2473,
  "Ð°Ð»ÑĮÐ½ÑĭÑħ": 2474,
  "ĠÐ½Ð¾ÑıÐ±ÑĢÑı": 2475,
  "ĠÑģÐºÑĢ": 2476,
  "Ð¸Ð´ÐµÐ»": 2477,
  "ÐĳÑĥÐ´": 2478,
  "ÐŁÑĢÐ¾Ð²": 2479,
  "Ð¥Ð¾ÑĢÐ¾ÑĪ": 2480,
  "alse": 2481,
  "())\\": 2482,
  "Ð½Ð¾Ð²Ð°": 2483,
  "ĠÑģÐ¾Ñħ": 2484,
  "ĠÐ´Ð¾Ð»Ð¶Ð½Ð°": 2485,
  "ĠÐĲÑĢ": 2486,
  "ĠÑĩÐ°ÑģÐ°": 2487,
  "ĠÑĩÐ°ÑģÐ¾Ð²": 2488,
  "ĠÑģÑĤÑĢÐ¾ÐºÑĥ": 2489,
  "ĠÐ¼Ð°Ð¼Ðµ": 2490,
  "ĠÐĺÐ½": 2491,
  "Ð½Ð¾Ð¿Ð¾Ð»Ð¸Ñģ": 2492,
  "ĠÑĦÑĥÐ½ÐºÑĨÐ¸Ñı": 2493,
  "ĠÐ¿ÑĢÐ¸ÐºÐ¾Ð»ÑĮÐ½Ð¾": 2494,
  "ĠÐ·Ð°Ð²Ð¸Ñģ": 2495,
  "ĠÐ¿ÑĢÐ¾Ð±Ð»ÐµÐ¼Ñĭ": 2496,
  "ĠÑģÐ°Ð¹ÑĤÐµ": 2497,
  "ĠÑİÑģÐ±": 2498,
  "ĠÐ¿Ð»Ð°Ð½ÑĪ": 2499,
  "view": 2500,
  "ĠÑĥÐ´Ð¾Ð±Ð½Ð¾": 2501,
  "ÌıÌıÌıÌıÌıÌıÌıÌı": 2502,
  "ĠÑĤÐµÐ»ÐµÑĦÐ¾Ð½": 2503,
  "ĠÐ¾ÑĤÐ´ÐµÐ»ÑĮÐ½Ð¾": 2504,
  "ĠÐ´Ð¾ÑĢÐ¾Ð³": 2505,
  "ĠÐ½Ð°Ð¿ÑĢÐ¸Ð¼ÐµÑĢ": 2506,
  "ĠÑĢÐ°Ð´Ð¸": 2507,
  "ÐĺÐ½ÑĤÐµÑĢ": 2508,
  "ĠÐ²ÑĭÐ¿Ð¾Ð»Ð½": 2509,
  "Ð¿Ð»Ð°ÑĤÐ½Ð¾": 2510,
  "ĠÐºÐ¾Ð¼Ð°Ð½Ð´Ñĭ": 2511,
  "Ġdelta": 2512,
  "Ð¢Ð¾ÑĩÐ½Ð¾": 2513,
  "ĠÑįÐ½ÐµÑĢÐ³": 2514,
  "books": 2515,
  "kostl": 2516,
  "600": 2517,
  "86": 2518,
  "BB": 2519,
  "ES": 2520,
  "ph": 2521,
  "rd": 2522,
  "ure": 2523,
  "xa": 2524,
  "Ġstr": 2525,
  "Ġcheck": 2526,
  "ĠÐ¥": 2527,
  "ÐµÑģÑı": 2528,
  "Ð»Ð°ÑģÑģ": 2529,
  "ÐºÑĢÐ°ÑĦ": 2530,
  "ĠÐ¿Ð»ÑİÑģ": 2531,
  "ÑıÐµÑĤ": 2532,
  "ĠÐ½Ð°Ð³": 2533,
  "ÑĩÐ¸Ñģ": 2534,
  "ĠÐ²Ð¸ÑĢÑĤÑĥ": 2535,
  "ĠÑģÐ¾Ð²": 2536,
  "Ð°ÐºÑĤÐ¸": 2537,
  "ĠÐ´Ð¶": 2538,
  "ĠÐ¼Ð°Ð»Ð¾": 2539,
  "ÑĪÐ¸Ð¹": 2540,
  "ĠÐ±Ð¿": 2541,
  "ĠÐ±ÑĥÐº": 2542,
  "ĠÑĢÐµÐ¿": 2543,
  "ĠÑĢÐµÐ¶": 2544,
  "ĠÑĥÐ¶": 2545,
  "ÐŁÑĢÐ°Ð²": 2546,
  "Ð°Ð²ÑĤÑĢÐ°": 2547,
  "Ð¾Ð±Ñī": 2548,
  "ÑĳÑħ": 2549,
  "pen": 2550,
  "ÐļÐ¾Ð¼": 2551,
  "ĠÐ°ÑĤ": 2552,
  "ĠÐ°Ð»ÑĮ": 2553,
  "ÑĢÑĥÑĩ": 2554,
  "ÑĢÑĥÑĪ": 2555,
  "ÐľÐ¾Ð³": 2556,
  "ĠÐ»ÐµÐ¶": 2557,
  "ĠÐ¾ÑĤÑģ": 2558,
  "ĠÑģÑĤÐ°Ð²": 2559,
  "ĠÑģÑĤÐ¸Ð»": 2560,
  "Ġ11": 2561,
  "ĠÐ¶Ð´": 2562,
  "Ð¾ÑĩÐºÑĥ": 2563,
  "Ð¸Ð²Ð°Ð»": 2564,
  "ĠÑħÐ¾ÑĤÑĮ": 2565,
  "Ð°Ð»ÑĮÐ½Ð¾Ð¹": 2566,
  "000": 2567,
  "ĠÑįÑĤÐ°": 2568,
  "ÑģÐºÐ¾Ð¼": 2569,
  "ÑĢÐ¾Ð²Ð°ÑĤÑĮ": 2570,
  "Ġrow": 2571,
  "Ð¸Ð³ÑĢ": 2572,
  "else": 2573,
  "ÑģÑĤÐ²Ð°": 2574,
  "ĠÐ·Ð°ÐºÐ°Ð·ÑĭÐ²": 2575,
  "ÐµÐ»Ð¸ÑĤÑĮ": 2576,
  "ĠÐ´Ð¾Ð»Ð¶Ð½Ñĭ": 2577,
  "ĠÐ¼ÑĭÑĪ": 2578,
  "ĠâĢĺ": 2579,
  "ĠÐ¼Ð°Ð¼Ð°": 2580,
  "ÑĥÐ·Ñĭ": 2581,
  "ĠÑģÐ»ÑĥÑĩÐ°Ð¹": 2582,
  "ĠÐ·Ð²Ð¾Ð½": 2583,
  "ĠÑĦÐ¾ÑĢÐ¼Ñĥ": 2584,
  "ĠÑĥÑĩÐ°ÑģÑĤ": 2585,
  "Ð¿ÐµÑĢÐ²": 2586,
  "ÐŁÐ¾ÑģÐ¼Ð¾ÑĤÑĢÐ¸": 2587,
  "ĠÑģÑģÐ´": 2588,
  "ĠÐ¼Ð¾Ð´ÐµÐ»ÑĮ": 2589,
  "ĠÐ°Ð²ÑĤÐ¾Ð¼": 2590,
  "ĠÐ¿Ð¸ÑģÐ°Ð»": 2591,
  "lay": 2592,
  "ĠÐ¿Ð¾Ð»ÑĮÐ·Ð¾Ð²": 2593,
  "ĠÑĤÐµÐ¾ÑĢ": 2594,
  "ĠÑģÐ»ÐµÐ´ÑĥÑİÑī": 2595,
  "ĠÐºÐ»Ð°Ð²Ð¸": 2596,
  "Ġcount": 2597,
  "Ð¥Ð¾ÑĩÑĥ": 2598,
  "ĠÐ¿ÐµÑĢÐµÐºÐ»ÑİÑĩ": 2599,
  "ĠÑĨÐµÐ½ÑĤÑĢ": 2600,
  "Ġdir": 2601,
  "ĠÐ¸ÑĤÐ¾Ð³Ðµ": 2602,
  "elem": 2603,
  "ĠÐ¿Ð»Ð°ÑģÑĤÐ¸Ðº": 2604,
  "/%": 2605,
  "43": 2606,
  "52": 2607,
  "ase": 2608,
  "cl": 2609,
  "fe": 2610,
  "gin": 2611,
  "im": 2612,
  "ml": 2613,
  "per": 2614,
  "sk": 2615,
  "ÐĻ": 2616,
  "âĪ": 2617,
  "Ġ?": 2618,
  "ĠG": 2619,
  "ĠÐ¤": 2620,
  "ÑĤÐµÑħ": 2621,
  "Ð½Ð¸ÑĤ": 2622,
  "ÑĥÐºÐ°": 2623,
  "Ð»ÐµÑĤ": 2624,
  "ĠÐ¿Ð°Ð¼": 2625,
  "ĠÐ¿Ð»Ð¾ÑħÐ¾": 2626,
  "ĠÐ²Ð°Ð¼": 2627,
  "ĠÐ²Ð°Ð¹": 2628,
  "ĠÐ²ÐµÐ·Ð´Ðµ": 2629,
  "ĠÐ²ÐµÐ½ÑĤÐ¸Ð»Ñı": 2630,
  "ĠÑģÐ¸": 2631,
  "ĠÑģÑĢÐµÐ´": 2632,
  "ĠÐºÐ°Ð½": 2633,
  "ĠÐºÐ°ÑĤ": 2634,
  "ĠÐºÐ»ÑİÑĩ": 2635,
  "ĠÑĤÐ¾Ð»": 2636,
  "Ð²Ð°Ð»": 2637,
  "ÐĿÐ°Ð¼": 2638,
  "ÐµÑĢÐ¾Ð²": 2639,
  "ĠÐ´ÐµÑĢÐ¶": 2640,
  "ÐµÐ½Ð½Ð¾Ðµ": 2641,
  "ÐµÐ½Ð½ÑĭÑħ": 2642,
  "ÑĪÐµÐ»": 2643,
  "Ð¿Ð¾Ð¼": 2644,
  "ÑħÑĥ": 2645,
  "ĠÑĩÑĳÐ¼": 2646,
  "Ð»Ð¸Ð¾ÑĤ": 2647,
  "Ð±Ð¾Ð»": 2648,
  "Ð±ÑĥÐº": 2649,
  "ĠÐ·Ð°Ñģ": 2650,
  "ĠÑĢÑĥÐ±": 2651,
  "Ð¾ÑĢÐ°": 2652,
  "Ð¸Ð½ÑĤ": 2653,
  "Ð¾ÑĤÐ²ÐµÑĤ": 2654,
  "ĠÑĥÑĢÐ¾Ð²": 2655,
  "ĠÑĥÑģÑĤÐ°Ð½Ð°Ð²Ð»Ð¸Ð²": 2656,
  "Ð¶Ñĥ": 2657,
  "Ð¸Ð»Ð¾": 2658,
  "ÐĶÐ°Ð¹": 2659,
  "Ð½Ð¸ÐºÐµ": 2660,
  "Ð°ÑĢÐº": 2661,
  "ĠÐ³ÑĥÐ»Ñı": 2662,
  "ĠÐ³Ð¾Ð´Ð°": 2663,
  "Ð»ÑıÐµÑĤ": 2664,
  "ĠÑģÑĤÐ¸Ðº": 2665,
  "ĠÑĦÐ¸Ð½": 2666,
  "ÐµÐ±ÐµÐ±Ðµ": 2667,
  "Ð¸ÐºÑĥ": 2668,
  "Ð¾ÑĩÑĮ": 2669,
  "Ð¾ÑĩÐµÐº": 2670,
  "ĠÐ¾Ð±Ð¾": 2671,
  "ÑĨÐ¸Ñİ": 2672,
  "Ð§ÐµÑĤ": 2673,
  "Ð°Ð½Ð¸Ñĩ": 2674,
  "Ð°Ð½Ð¸Ð·": 2675,
  "ÑĥÐ¼Ð°Ð»": 2676,
  "ĠÑĢÐ°Ð·Ð¼": 2677,
  "ÑĭÐ²Ð°Ð»": 2678,
  "ÐµÐ²ÑĭÐ¹": 2679,
  "Ð¸ÑĩÐ½Ð¾": 2680,
  "Ð¸ÑĪÐ°": 2681,
  "ÑĥÑİÑĤ": 2682,
  "ÑĥÑģÑĮ": 2683,
  "ÐĳÑĢÐ¾": 2684,
  "atrix": 2685,
  "ĠÑĢÐ°Ð±Ð¾ÑĤÐ°ÑİÑĤ": 2686,
  "ÑīÐµÐµ": 2687,
  "age": 2688,
  "alog": 2689,
  "ĠÐ´ÐµÐ»Ð°Ð»": 2690,
  "ĠÐ´ÐµÐ»Ð°ÐµÑĪÑĮ": 2691,
  "âĢĭ": 2692,
  "ĠÑģÐ¼Ð¾ÑĤÑĢÐ¸": 2693,
  "ĠÑįÑĤÐ¾Ð¹": 2694,
  "Ð¸Ð»Ð¸ÑģÑĮ": 2695,
  "ĠÐ´Ð²Ð¸Ð¶": 2696,
  "ĠÐ´ÑĢÑĥÐ³Ð¸Ñħ": 2697,
  "ĠÐ½ÑĥÐ¶Ð½Ñĭ": 2698,
  "ĠÐ¿Ð¾Ð¼Ð¾Ð³": 2699,
  "ÐĽÐ°Ð´Ð½Ð¾": 2700,
  "Ð°ÑĨÐ¸Ñİ": 2701,
  "ĠÐ¿ÐµÑĢÐ²Ð¾Ð¼": 2702,
  "ÐŁÑĢÐ¸Ðº": 2703,
  "ÐŁÑĢÐ¸Ð´": 2704,
  "Ð°ÑĪÐºÐ°": 2705,
  "Ð°ÑģÑĤÐµÑĢ": 2706,
  "ĠÑģÐµÑĢÐ²": 2707,
  "ĠÑĢÐ°ÑģÑģÐº": 2708,
  "ĠÑĢÐµÑĪÐ¸Ð»": 2709,
  "ÐºÑĢÐµÑĤ": 2710,
  "ĠÐ¿ÑĢÐ¸Ð½ÑĨÐ¸Ð¿": 2711,
  "ĠÐ¼Ð¸Ð½Ð¸Ð¼": 2712,
  "ĠÐ¼Ð°ÑĤÐµÐ¼": 2713,
  "ĠÐ¿Ð¾ÑĢÑıÐ´": 2714,
  "ĠÑģÐ²Ð¾Ð¸": 2715,
  "ÑıÐ·Ð°ÑĤÐµÐ»ÑĮÐ½Ð¾": 2716,
  "ĠÐ¾Ð±ÑĬÐµÐºÑĤ": 2717,
  "split": 2718,
  "ĠÑģÐ¼Ð¾ÑĤÑĢÐµÐ»": 2719,
  "ĠÑĤÑĢÐ¸Ð³Ð¾Ð½": 2720,
  "ĠÐ±Ð¾Ð»ÑĮÑĪÐ¾Ð¹": 2721,
  "Ð°Ð¹Ð½ÐºÑĢÐ°ÑĦ": 2722,
  "matrix": 2723,
  "ĠÐ´ÐµÐ±Ð¸Ð°Ð½": 2724,
  "ĠÐ·Ð°Ð¿ÑĥÑģÑĤÐ¸ÑĤÑĮ": 2725,
  "ĠÐ½ÐµÐ¿ÑĢÐ°Ð²Ð¸Ð»ÑĮÐ½Ð¾": 2726,
  "ĠÐ¿ÑĢÐ¾Ð¸Ð·Ð²Ð¾Ð´": 2727,
  "ĠÐ·Ð°ÐºÐ¾Ð½Ñĩ": 2728,
  "Ġmax": 2729,
  "ÐµÑĪÐµÐ²Ð»Ðµ": 2730,
  "notebooks": 2731,
  "catalog": 2732,
  "ĠÑĪÐµÑģÑĤÐµÑĢ": 2733,
  "Ð»Ð¸ÑĪÐºÐ¾Ð¼": 2734,
  "ĠÑĤÑĢÐ¸Ð³Ð¾Ð½Ð¾Ð¼ÐµÑĤÑĢÐ¸": 2735,
  "59": 2736,
  "79": 2737,
  "?)": 2738,
  "NO": 2739,
  "]+": 2740,
  "est": 2741,
  "jo": 2742,
  "ject": 2743,
  "va": 2744,
  "Ġt": 2745,
  "Ġkostl": 2746,
  "ÑĤÐ¸Ð²": 2747,
  "ÑģÐºÐ¸Ðµ": 2748,
  "Ð»Ð°Ð¼": 2749,
  "Ð»ÐµÐº": 2750,
  "ĠÐ½ÑĢÐ°Ð²": 2751,
  "ĠÐ²Ð¾Ñģ": 2752,
  "ĠÐ²ÐµÑĩ": 2753,
  "ĠÑģÐµÐ¼": 2754,
  "ĠÑģÐ¾Ð²Ñģ": 2755,
  "ĠÑģÑĩÑĳÑĤ": 2756,
  "ĠÑģÐ½Ð¾Ð²Ð°": 2757,
  "ĠÐºÑĢÑĥÐ³": 2758,
  "ĠÐºÑĥÑĪ": 2759,
  "ĠÑĤÐ¸Ð¿": 2760,
  "Ð²ÐµÑģÑĤ": 2761,
  "ÐµÑĢÐ¸Ð½": 2762,
  "ĠÐ´Ð°ÑİÑĤ": 2763,
  "ĠÐ´Ð½Ñı": 2764,
  "ĠÐ¼ÐµÐ»": 2765,
  "ĠÐ¼Ð¾Ð´Ñĥ": 2766,
  "Ð°Ð»Ñĭ": 2767,
  "ĠÐ¿ÑĢÐ¾Ðº": 2768,
  "Ð¿Ñģ": 2769,
  "Ð¾Ð»Ð¸": 2770,
  "ÑİÑī": 2771,
  "Ð¾Ð´Ð¸": 2772,
  "Ð±Ð¾": 2773,
  "ĠÐ·Ð°Ð¹": 2774,
  "ĠÑĢÐµÐ³": 2775,
  "ĠÑĢÐ°ÑģÑģ": 2776,
  "ĠÑĢÐ°Ð±Ð¾Ñĩ": 2777,
  "Ð³Ð¾Ð»ÑĮ": 2778,
  "Ð°Ð½Ð½ÑĭÐµ": 2779,
  "ĠÑĥÑĢÐ°Ð²Ð½": 2780,
  "ĠÑĥÑģÐºÐ¾ÑĢ": 2781,
  "ĠÐµÐ´": 2782,
  "Ð¢ÐµÐ¼Ð°": 2783,
  "ÐŁÐ°ÑĢ": 2784,
  "ĠÐ°Ð±": 2785,
  "Ð¾Ð»ÑĮÑĪ": 2786,
  "Ð¾Ð»ÑĮÑĪÐµ": 2787,
  "Ð½Ð¸Ð·": 2788,
  "Ð°ÑĢÐ¼": 2789,
  "ĠÐ³ÑĢÑĥ": 2790,
  "ĠÐ¿Ð¾ÑģÑĤ": 2791,
  "ĠÐ¿Ð¾ÑħÐ¾Ð¶Ðµ": 2792,
  "html": 2793,
  "ĠÐ»ÐµÐ³": 2794,
  "ĠÑģÑĤÐ¸Ð¼": 2795,
  "Ð¸ÐºÐ¾Ð²": 2796,
  "Ð¸Ð²Ð¾": 2797,
  "ĠÐ¿ÐµÑĢÐµÐ·": 2798,
  "reli": 2799,
  "ÐµÑĥÐ³Ð¾Ð»ÑĮ": 2800,
  "ĠÐ¿Ð¾Ð´ÑħÐ¾Ð´": 2801,
  "Ð°Ð»ÑĮÐ½Ð¾Ðµ": 2802,
  "ĠÐ¿ÑĢÐ¾Ð¸Ñģ": 2803,
  "stu": 2804,
  "ĠÑĢÐ°Ð·Ð½ÑĭÑħ": 2805,
  "ĠÑģÐºÐ¾ÑĢÐ¾": 2806,
  "ĠÑĪÐ»ÐµÐ¼": 2807,
  "ÐĹÐ°Ð±": 2808,
  "ÐĹÐ´ÐµÑģÑĮ": 2809,
  "ĠÐ¾Ð´Ð½Ð¾Ð³Ð¾": 2810,
  "ĠÐ¿Ð¾Ð½ÑıÑĤÑĮ": 2811,
  "ali": 2812,
  "ĠÑįÑĤÑĥ": 2813,
  "iti": 2814,
  "one": 2815,
  "ard": 2816,
  "ĠÐ¾Ð¿Ð»": 2817,
  "Ġinput": 2818,
  "ĠÐ½Ð¾Ð²ÑĭÐµ": 2819,
  "ĠÐ¿Ð°ÑĢÐ°Ð»Ð»": 2820,
  "ĠÐ¿ÐµÑĢÐ²Ð¾Ð¹": 2821,
  "ĠÐ¿ÐµÑĢÐ²Ð¾Ð³Ð¾": 2822,
  "ĠÐ¿Ð¾Ð»ÑĥÑĩÐ¸Ð»Ð¾ÑģÑĮ": 2823,
  "ĠÐ²Ð¸Ð´Ð½Ð¾": 2824,
  "ĠÑĩÐ°ÑģÑĤÐ¾": 2825,
  "ĠÐ¾ÐºÑĤ": 2826,
  "ĠÐŀÑĢÐµÐ½": 2827,
  "ĠÐ¿ÑĢÐµÐ´Ð»Ð¾Ð¶": 2828,
  "ĠÐ²Ð¸Ð¶Ñĥ": 2829,
  "mail": 2830,
  "ĠÐºÐ°Ð¶Ð´Ð¾Ð¹": 2831,
  "ĠÐ²Ð¸Ð½Ð´Ñĥ": 2832,
  "amp": 2833,
  "Ð¿Ð¾Ð»Ð½Ðµ": 2834,
  "ĠÐ¿ÑĢÐ¾Ð²ÐµÑĢÑı": 2835,
  "ĠÑĪÑĤÑĥÐºÐ¸": 2836,
  "ĠÐ½Ð°Ð·Ð°Ð´": 2837,
  "ĠÑģÐ¸Ð½ÑĥÑģ": 2838,
  "ĠÐ¿Ð»Ð°Ð½Ðµ": 2839,
  "ĠÐºÑĢÑĥÑĤÐ¾Ð¹": 2840,
  "ĠÐ¾ÑĪÐ¸Ð±ÐºÐ°": 2841,
  "ÑĤÐ°ÐºÐ¸": 2842,
  "ĠÐ¿Ð¾ÑģÐ¼Ð¾ÑĤÑĢÐµÑĤÑĮ": 2843,
  "ĠÐ³Ð»Ð°Ð²": 2844,
  "ĠÐ¿ÐµÑĩÐ°ÑĤÐ°ÑĤÑĮ": 2845,
  "ĠÐ¼Ð¾Ð½Ð¸Ðº": 2846,
  "ĠÐ½ÐµÐ¹ÑĢÐ¾Ð½": 2847,
  "ĠÐ¾ÑģÐ¾Ð±Ð¾": 2848,
  "ĠÑĤÑĢÐ°Ð½Ñģ": 2849,
  "ĠÐ½ÐµÐ¼Ð½Ð¾Ð³Ð¾": 2850,
  "ĠÐ±Ð¸Ð±Ð»Ð¸Ð¾ÑĤ": 2851,
  "ÑĢÐ°Ð²Ð½Ð¸Ð²": 2852,
  "ĠÑģÐµÐºÑĥÐ½": 2853,
  "ĠÐ²Ð½ÑĥÑĤÑĢÐ¸": 2854,
  "ĠÐ¾ÑĢÐ³": 2855,
  "ĠÑģÐ¾Ð²ÑģÐµÐ¼": 2856,
  ".)": 2857,
  "09": 2858,
  "IN": 2859,
  "OO": 2860,
  "Wn": 2861,
  "do": 2862,
  "ec": 2863,
  "ite": 2864,
  "my": 2865,
  "python": 2866,
  "rg": 2867,
  "tra": 2868,
  "vy": 2869,
  "val": 2870,
  "Ġl": 2871,
  "ĠÐ§": 2872,
  "ÐµÑĨ": 2873,
  "ÐµÐºÐ°": 2874,
  "ÑĤÐ¾Ð²": 2875,
  "ÑĢÐµÐ¹": 2876,
  "ÑĥÐºÐ¸": 2877,
  "Ð»Ð¾Ð¼": 2878,
  "ÐºÐ°Ð»": 2879,
  "ĠÐ¿ÑĥÑģ": 2880,
  "ÑĩÐ¸ÐºÐ¸": 2881,
  "ĠÐ²ÐµÑģÑĮ": 2882,
  "ĠÐ²ÐµÑī": 2883,
  "ĠÑģÐ±Ð¾ÑĢ": 2884,
  "ĠÑģÐºÐ¸Ð´": 2885,
  "ĠÑģÐ¾Ð±ÑĢÐ°ÑĤÑĮ": 2886,
  "ĠÑģÐ»Ð¸ÑĪÐºÐ¾Ð¼": 2887,
  "ĠÐºÐ¾Ð³Ð¾": 2888,
  "ĠÑĤÑĥ": 2889,
  "Ð²Ñĭ": 2890,
  "ÐĿÐ¸Ðº": 2891,
  "ĠÐ¸Ð½Ð°ÑĩÐµ": 2892,
  "ĠÐ´Ð°Ð»ÑĮÑĪÐµ": 2893,
  "ĠÐ¼ÐµÐ¼": 2894,
  "ĠÐ¿ÑĢÐ¾ÑĤ": 2895,
  "ĠÐ±Ð°Ð·": 2896,
  "Ð»Ð¸Ð¹": 2897,
  "ĠÑĢÑıÐ´": 2898,
  "Ð³Ð»Ð¸Ð¹": 2899,
  "ĠÐ½Ð°ÑĢ": 2900,
  "ÐµÐ»Ñİ": 2901,
  "ÐŁÐ»": 2902,
  "ÐŁÐ¾Ðº": 2903,
  "ÐĴÐ¸Ð´": 2904,
  "ÐĶÑĥÐ¼Ð°Ñİ": 2905,
  "ÐļÑĥÐ´Ð°": 2906,
  "ÐŀÐ¿": 2907,
  "ĠÐ³Ð¾Ð´": 2908,
  "ĠÐ³Ð»Ñı": 2909,
  "ĠÐ³Ð¾Ð´Ñĥ": 2910,
  "Ð¡ÐµÐ³Ð¾Ð´Ð½Ñı": 2911,
  "Ð¸Ð¼ÐµÐ½": 2912,
  "ĠÐ»Ð¸Ð¼": 2913,
  "ĠÑģÑĤÐ°ÑĤÑĮ": 2914,
  "ĠÑģÑĤÐ°Ð½Ð´": 2915,
  "ĠÐ±ÑĭÑģÑĤÑĢÐ¾": 2916,
  "ÐµÑģÐ¸": 2917,
  "ĠÑĦÐ°Ðº": 2918,
  "Ð¾ÑĩÐºÐ¸": 2919,
  "ĠÐ¾Ð±ÑıÐ·Ð°ÑĤÐµÐ»ÑĮÐ½Ð¾": 2920,
  "ĠÐ¿ÐµÑĢÐµÐ±": 2921,
  "ster": 2922,
  "ĠÐ¸Ð·ÑĥÑĩ": 2923,
  "len": 2924,
  "les": 2925,
  "ĠÑģÐºÐ°Ð·Ð°ÑĤÑĮ": 2926,
  "ans": 2927,
  "ĠÐ¼ÐµÐ½ÑıÑĤÑĮ": 2928,
  "ÐµÐ²Ð°": 2929,
  "Ð¸Ð´Ð°Ð»": 2930,
  "ĠÐ¿Ð¾Ð»Ð¾Ð²": 2931,
  "ĠÐ¿Ð¾Ð»Ð¾Ð¶": 2932,
  "ÐĹÐ°Ð´": 2933,
  "ĠÐ¾Ð´Ð½Ð¾Ð¼": 2934,
  "ÐĳÑĭ": 2935,
  "ĠÐ¸Ð½ÑģÑĤÑĢÑĥ": 2936,
  "ĠÐ¿Ð¾ÑģÑĭÐ»": 2937,
  "âĢĵ": 2938,
  "ĠÐŁÑĢ": 2939,
  "def": 2940,
  "ÐłÐµÑĪ": 2941,
  "().": 2942,
  "force": 2943,
  "ĠÐ·Ð°ÐºÑĢ": 2944,
  "ÑĢÐ¾ÑģÐ¸Ð»": 2945,
  "Ð¾Ð²Ð°ÑĤÑĮÑģÑı": 2946,
  "ĠÐ²Ð¾Ð·ÑĮ": 2947,
  "ĠÐ²Ð¾Ð·Ð²": 2948,
  "user": 2949,
  "project": 2950,
  "ĠÐ¿ÑĢÐµÐ´ÑģÑĤÐ°Ð²": 2951,
  "ÐŀÑĤÐ»Ð¸ÑĩÐ½Ð¾": 2952,
  "Ð¡ÑĤÑĢÐ°Ð½": 2953,
  "Ð±ÑĢÐ°ÑĤÑĮ": 2954,
  "ĠÐ¿ÑĢÐ¾Ð³ÑĢÐ°Ð¼Ð¼Ð°": 2955,
  "ĠÐ½Ð°ÑĪÐµÐ»": 2956,
  "ĠÐ²Ð¸Ð½Ð´Ñĭ": 2957,
  "Ð°Ð·Ð°Ð»Ð¾ÑģÑĮ": 2958,
  "ĠÑģÐºÐ¾ÑĢÐ¾ÑģÑĤÐ¸": 2959,
  "list": 2960,
  "ĠÑĤÐµÐ¼Ð¿ÐµÑĢ": 2961,
  "ĠÐ²ÑģÑıÐºÐ¸Ðµ": 2962,
  "goreli": 2963,
  "ĠÐ¯Ð½Ð´ÐµÐºÑģ": 2964,
  "ĠÐ±ÐµÑģÐºÐ¾Ð½": 2965,
  "Ð¡Ð¿Ð°ÑģÐ¸Ð±Ð¾": 2966,
  "Ġ>=": 2967,
  "ĠÐºÑĥÐ¿Ð¸Ð»": 2968,
  "ĠÐ´Ð¾Ð±Ð°Ð²Ð¸ÑĤÑĮ": 2969,
  "ĠÐ²Ð°ÑĢÐ¸Ð°Ð½ÑĤÐ¾Ð²": 2970,
  "ĠÑģÐ¸Ð¼ÑĥÐ»Ñı": 2971,
  "ĠÑĥÑģÐ»Ð¾Ð²Ð¸Ðµ": 2972,
  "ĠÐ°Ð½Ð³Ð»Ð¸Ð¹": 2973,
  "ĠÐ±ÑĢÐ°ÑĤÑĮ": 2974,
  "ĠÐ¸Ð³ÑĢÐ°": 2975,
  "ÐĿÐ°Ð¿Ð¸ÑĪÐ¸": 2976,
  "ĠÑħÐ²Ð°ÑĤÐ°ÐµÑĤ": 2977,
  "ĠÑĤÐ²Ð¾Ð¹": 2978,
  "ĠÐ¿Ð¾ÑģÑĩÐ¸ÑĤÐ°ÑĤÑĮ": 2979,
  "ĠÐ¾Ð¿ÐµÑĢÐ°ÑĤÐ¸Ð²": 2980,
  "Ð±ÑĭÐ»Ð¾": 2981,
  "ÐĴÑģÑĳ": 2982,
  "ÐĹÐ½Ð°ÑĩÐ¸ÑĤ": 2983,
  "ĠÑĤÐµÐºÑģÑĤ": 2984,
  "ĠÐ¾ÑĤÐ²ÐµÑĩ": 2985,
  "ĠÑģÐ¾ÑħÑĢÐ°Ð½": 2986,
  "ĠÐĺÐ½Ð½Ð¾Ð¿Ð¾Ð»Ð¸Ñģ": 2987,
  "ĠÐ¿Ð»Ð°Ð½ÑĪÐµÑĤ": 2988,
  "goreliy": 2989,
  "\",": 2990,
  "23": 2991,
  "<=": 2992,
  "ass": 2993,
  "br": 2994,
  "cs": 2995,
  "citi": 2996,
  "df": 2997,
  "fa": 2998,
  "ft": 2999,
  "ka": 3000,
  "os": 3001,
  "ot": 3002,
  "pan": 3003,
  "qi": 3004,
  "wi": 3005,
  "Ġ#": 3006,
  "ĠX": 3007,
  "Ð¾ÑĪ": 3008,
  "Ð¾ÑĤÐ¾ÑĢ": 3009,
  "Ð°Ñĥ": 3010,
  "Ð°ÑĦ": 3011,
  "ÐµÑĨÐ¸": 3012,
  "ÑĢÐµÑĪ": 3013,
  "ÑĢÑıÐ´": 3014,
  "Ð½Ð¾Ð»Ð¾Ð³": 3015,
  "ere": 3016,
  "Ð»ÐµÐºÑĤ": 3017,
  "ÐºÐ¾Ð³Ð¾": 3018,
  "ĠÐ¿Ð¾Ð·Ð´": 3019,
  "ĠÐ¿ÑĥÑĤÐ¸": 3020,
  "ÑĭÐ»ÑĮ": 3021,
  "ĠÐ½ÐµÐ²": 3022,
  "ĠÐ²ÐµÐ±": 3023,
  "ĠÐ²Ð°Ð¶": 3024,
  "ĠÐ²ÐºÐ»Ð°Ð´": 3025,
  "ĠÑģÐ¸ÑĤ": 3026,
  "ĠÑģÐ¾ÑĢÑĤÐ¸ÑĢÐ¾Ð²": 3027,
  "Ð´ÐµÑĢ": 3028,
  "Ð´ÑĢÑĥÐ³": 3029,
  "ĠÐºÑĢÐ¸": 3030,
  "ĠÐºÐ¾Ð´Ðµ": 3031,
  "ĠÐºÐ¸Ð½Ð¾": 3032,
  "ÐĿÐ°Ðº": 3033,
  "ÐĿÐ¾ÑĢÐ¼": 3034,
  "ÐµÑĢÑħ": 3035,
  "ĠÐ¼ÐµÐ½": 3036,
  "ĠÐ¼Ð¾Ð»": 3037,
  "ĠÐ¼Ð¸ÑĢ": 3038,
  "ĠÐ¼ÐµÑģÑı": 3039,
  "ÐµÐ½Ð¾": 3040,
  "Ð°Ð»Ð°ÑģÑĮ": 3041,
  "ĠÐ¿ÑĢÐ¸Ñģ": 3042,
  "ĠÐ¿ÑĢÐ¸Ð±": 3043,
  "Ð¿Ð¿": 3044,
  "Ð¿Ð¾Ñģ": 3045,
  "ÑģÑĤÑĢÐ°": 3046,
  "ÐĲÐ¹": 3047,
  "Ð¾Ð´Ð¸ÑĤ": 3048,
  "ĠÐ±Ð°ÑĤ": 3049,
  "ĠÑĩÑĳÑĢ": 3050,
  "ĠÐ·ÑĢ": 3051,
  "ĠÐ·Ð´ÐµÑģÑĮ": 3052,
  "ĠÑĢÑħ": 3053,
  "ĠÑĢÑĥÐº": 3054,
  "Ð³Ð¸": 3055,
  "Ð¸Ð½ÑĥÑĤ": 3056,
  "ÐµÐ»ÐµÐ¹": 3057,
  "Ð¾ÑĤÑĭ": 3058,
  "Ð·Ð°Ðº": 3059,
  "Ð¢Ð¾Ð¶Ðµ": 3060,
  "Ð°ÑĤÑĥÑĢ": 3061,
  "ÐĺÐ´": 3062,
  "ÐĶÐ¾Ð»Ð¶": 3063,
  "ÐŀÑģ": 3064,
  "ÐŀÐ³Ð¾": 3065,
  "ĠÐºÐ°ÐºÑĥÑİ": 3066,
  "ÐľÐ¸ÑĪÐ°": 3067,
  "tprg": 3068,
  "ĠÐ¾ÑĤÐ¼": 3069,
  "ÐµÐ·Ð´": 3070,
  "ĠÑĤÐ°ÐºÐ¸Ñħ": 3071,
  "Ġ13": 3072,
  "ĠÑĦÐ¾Ð½": 3073,
  "Ð¾ÑĩÐºÐ°": 3074,
  "ÐķÑīÐµ": 3075,
  "ĠÐ¾Ð±Ð·": 3076,
  "ĠÐ¾Ð±ÑĢÐ°ÑĤ": 3077,
  "reak": 3078,
  "ĠÐ¿Ð¾Ð´Ð´ÐµÑĢÐ¶": 3079,
  "ĠÑħÐ¾ÑĤÑı": 3080,
  "Ð¾Ð·Ð½": 3081,
  "Ð°Ð½Ð¸ÐµÐ¼": 3082,
  "star": 3083,
  "ĠÑĤÑĭÑī": 3084,
  "ĠÐ¸Ð·Ð¼ÐµÐ½": 3085,
  "ĠÑĢÐ°Ð·Ð»Ð¸Ñĩ": 3086,
  "ĠÐ±ÑĥÐ´Ñĥ": 3087,
  "ĠÐ±ÑĥÐ´ÐµÐ¼": 3088,
  "Ð¸ÑĢÐ°ÑĤÑĮ": 3089,
  "Ð¾Ð´ÐµÐ»Ð¸": 3090,
  "ĠÑĪÐºÐ¾Ð»ÑĮ": 3091,
  "ĠÐ¿Ð¾Ð»ÐµÐ·": 3092,
  "ÐĹÐ°Ð²ÑĤÑĢÐ°": 3093,
  "ĠÐ¾Ð´Ð½Ð¾Ð²": 3094,
  "ĠÑģÐ»Ð¾Ð¼": 3095,
  "ĠÑģÐ»Ð¾Ð¶": 3096,
  "ĠÑģÐ»Ð°Ð¹": 3097,
  "ĠÑģÐ»ÑĭÑĪ": 3098,
  "ĠÑĢÐ°Ð±Ð¾ÑĤÑĥ": 3099,
  "ĠÑĢÐ°Ð±Ð¾ÑĤÐ°Ð»Ð¾": 3100,
  "ĠÐ´ÐµÐ»Ð°ÑİÑĤ": 3101,
  "âĢĶ": 3102,
  "ÑįÑĪ": 3103,
  "Ð¸Ð³Ð°": 3104,
  "ĠÐ¾Ð¿ÑıÑĤÑĮ": 3105,
  "ĠÐ¿Ð¾Ð¼Ð¾Ñī": 3106,
  "ÐĽÐ¸Ð±Ð¾": 3107,
  "ĠÑģÐ¾Ð¾Ð±Ñī": 3108,
  "ĠÑģÐ¾Ð¾ÑĤÐ²ÐµÑĤ": 3109,
  "Ð¸Ð½ÑĥÐ»": 3110,
  "ick": 3111,
  "ics": 3112,
  "ĠÐºÐ¾Ð´Ð°": 3113,
  "ĠÐ²ÐµÑĢÐ¾": 3114,
  "ĠÐ½Ð°Ð¿Ð¸ÑģÐ°Ð½Ð¾": 3115,
  "ĠÐ¿Ð¸ÑĤÐ¾Ð½Ðµ": 3116,
  "Ð¡ÐºÐ¾Ð»ÑĮÐºÐ¾": 3117,
  "Ġbreak": 3118,
  "ĠÐºÐ°Ð¶Ð´Ð¾Ð³Ð¾": 3119,
  "ĠÐ½ÐµÐ¿Ð¾Ð½": 3120,
  "Ġ\",": 3121,
  "ĠÑģÐ²Ð¾Ñİ": 3122,
  "ĠÐ½Ð°ÑĩÐ°Ð»Ð°": 3123,
  "ĠÐ¿ÑĢÐ¸ÐºÐ¾Ð»ÑĮ": 3124,
  "ÐĲÑħÐ°ÑħÐ°": 3125,
  "ĠÐłÐ¾Ñģ": 3126,
  "ĠÐ·Ð°Ð¼ÐµÑĤ": 3127,
  "ĠÐ¸Ð´ÑĳÑĤ": 3128,
  "ÑĩÐµÑģÐºÐ¸": 3129,
  "ĠÑĢÐ¾Ð±Ð¾ÑĤÐ°": 3130,
  "Ġ{\\": 3131,
  "ĠÐºÑĥÐ¿Ð¸ÑĤÑĮ": 3132,
  "ĠÑįÑĤÐ¸Ñħ": 3133,
  "ĠTrue": 3134,
  "ĠÑĢÐµÐ·ÑĥÐ»ÑĮÑĤ": 3135,
  "ĠÐ¿ÑĢÐ¸Ð»Ð¾Ð¶ÐµÐ½Ð¸Ðµ": 3136,
  "ĠÐ±Ð°Ð»Ðº": 3137,
  "ĠÑĪÐºÐ¾Ð»Ðµ": 3138,
  "ĠÑģÑĤÑĢÐ°Ð½Ð½Ð¾": 3139,
  "ĠÐºÐ¾Ð¾ÑĢÐ´Ð¸Ð½Ð°ÑĤ": 3140,
  "ĠÐ¾Ð¿ÑĢÐµÐ´ÐµÐ»": 3141,
  "ÑĦÑĦÐµÐºÑĤ": 3142,
  "ĠÐºÐ°ÑĩÐµÑģÑĤÐ²": 3143,
  "ÐĲÐ¥ÐĲÐ¥": 3144,
  "ĠÑģÐ¿Ð¸ÑģÐ¾Ðº": 3145,
  "press": 3146,
  "ĠÐ±ÑĢÐ°ÑĥÐ·ÐµÑĢ": 3147,
  "telegram": 3148,
  "ĠÐ¼Ð°Ð³Ð°Ð·Ð¸Ð½": 3149,
  "ÑĢÐµÐ¼ÐµÐ½Ð½Ð¾": 3150,
  "ĠÐ¾Ð³ÑĢÐ°Ð½Ð¸Ñĩ": 3151,
  "Ð¥Ð¾ÑĢÐ¾ÑĪÐ¾": 3152,
  "ĠÑĢÐµÐ¶Ð¸Ð¼": 3153,
  "ÐŁÑĢÐ¸ÐºÐ¾Ð»ÑĮÐ½Ð¾": 3154,
  "ĠÑģÐµÑĢÐ²Ð¸Ñģ": 3155,
  "ĠÐ¿ÑĢÐ¾Ð¸ÑģÑħÐ¾Ð´Ð¸ÑĤ": 3156,
  "ĠÐŀÑĢÐµÐ½Ð±ÑĥÑĢÐ³": 3157,
  "ĠÑģÑĤÐ°Ð½Ð´Ð°ÑĢÑĤ": 3158,
  "citilink": 3159,
  "ĠÐ¾Ð´Ð½Ð¾Ð²ÑĢÐµÐ¼ÐµÐ½Ð½Ð¾": 3160,
  ").": 3161,
  "+'": 3162,
  "-=": 3163,
  "01": 3164,
  "53": 3165,
  "77": 3166,
  "?\\": 3167,
  "\\\\": 3168,
  "iv": 3169,
  "ny": 3170,
  "wall": 3171,
  "yo": 3172,
  "âĤ": 3173,
  "ĠB": 3174,
  "ĠK": 3175,
  "Ð¸Ð´Ðµ": 3176,
  "ÑĢÐµÐ±": 3177,
  "ÑģÐ¸Ð¸": 3178,
  "Ð½Ð¾Ð³": 3179,
  "Ð½ÐµÐ½ÑĮ": 3180,
  "ÑĥÑĢÐ°": 3181,
  "ero": 3182,
  "mes": 3183,
  "ÐºÐ°Ðº": 3184,
  "ÐºÐ°Ð¼": 3185,
  "ÐºÑĥÐ´Ð°": 3186,
  "ĠÐ½ÑĳÐ¼": 3187,
  "ĠÐ²ÑģÑĤÑĢ": 3188,
  "ĠÐ²Ð¾Ð´Ñĥ": 3189,
  "ĠÑģÐ¸Ð»": 3190,
  "Ð¼Ñĭ": 3191,
  "Ð¼Ð°Ð½": 3192,
  "ĠÐºÐ¾Ð»ÑĮ": 3193,
  "ĠÐºÑĥÑģ": 3194,
  "Ð²Ð¾Ð¹": 3195,
  "ÐĿÐµÐ¿": 3196,
  "ÐµÑĤÐµÑĢ": 3197,
  "ĠÐ¾ÑĦÐ¾ÑĢÐ¼": 3198,
  "ĠÐ´Ð¾Ð»": 3199,
  "ĠÐ´ÐµÐº": 3200,
  "ĠÐ´ÐµÐ²": 3201,
  "ĠÐ´ÐµÑĪÐµÐ²Ð»Ðµ": 3202,
  "ĠÐ¼ÐµÑģÑĤÐ¾": 3203,
  "ĠÐ¼Ð°Ð¹Ð½ÐºÑĢÐ°ÑĦ": 3204,
  "ÐµÐ½ÑĨÐ¸": 3205,
  "Ð°Ð»Ð¾Ð³": 3206,
  "ĠÐ¿ÑĢÐ¸Ñĩ": 3207,
  "Ð¿Ð°ÑĢ": 3208,
  "ÑħÐ¾Ð¶": 3209,
  "Ð¾Ð´Ð°ÑĢ": 3210,
  "Ð»Ð¸Ð»": 3211,
  "Ð±ÐµÑģ": 3212,
  "ĠÑĢÑĥÑĩ": 3213,
  "Ð³Ð¾ÑĤÐ¾Ð²": 3214,
  "Ð¾ÑĢÐ¾ÑĤ": 3215,
  "ĠÐ½Ð°ÑħÐ¾Ð´": 3216,
  "ĠÐ½Ð°ÑĥÑĪ": 3217,
  "ted": 3218,
  "Ð¶Ð°ÑģÑĤ": 3219,
  "ÐĺÐ¼": 3220,
  "ĠÐ³ÑĥÐ³": 3221,
  "Ð¡Ð´ÐµÐ»": 3222,
  "ÑĦÑĥ": 3223,
  "ÐľÐ¾Ð¹": 3224,
  "ĠÐ¾ÑĤÐºÐ»ÑİÑĩ": 3225,
  "ĠÑģÑĤÑĥÐ´": 3226,
  "ÐµÐ·Ð¶": 3227,
  "ĠÐ²ÑģÐµÐ¼": 3228,
  "ĠÑĦÐ¾ÑĢ": 3229,
  "ÑĤÐ¾ÑĢÐ¾Ð²": 3230,
  "ÐºÐ¾ÑĤÐ¾ÑĢ": 3231,
  "Ð£ÑĦ": 3232,
  "ĠÐ²ÑĭÐ²": 3233,
  "ÐķÐ³Ð¾": 3234,
  "ÑĨÐ¸Ð¾Ð½": 3235,
  "ĠÐ¿Ð¾Ð´Ð°ÑĢ": 3236,
  "ĠÐ¿Ð¾Ð´ÑħÐ¾Ð´Ð¸ÑĤ": 3237,
  "ĠÐ¿ÑĢÐ¾ÑīÐµ": 3238,
  "ĠÐ¸Ð·Ð¾Ð±ÑĢÐ°Ð¶": 3239,
  "ory": 3240,
  "Ð°ÑĩÐ°": 3241,
  "ĠÑĪÐ¾": 3242,
  "ÐŁÑĢÐ¾Ð±": 3243,
  "ĠÐ¸Ð½ÑĦÐ¾ÑĢÐ¼": 3244,
  "ĠÑģÐ¿ÑĢÐ°Ð²": 3245,
  "ĠÑģÐ¼Ð¾Ð¶ÐµÑĪÑĮ": 3246,
  "Ð¸Ð»Ð¸Ð½": 3247,
  "ĠÐºÐ¾Ð½ÑĤÑĢ": 3248,
  "ÐĵÐ¾ÑĤÐ¾Ð²": 3249,
  "ÑģÐºÐ¾Ð³Ð¾": 3250,
  "ĠÐ½Ð°Ð¿Ð¸ÑĪ": 3251,
  "ĠÐ·Ð°Ð´Ð°Ð½Ð¸Ðµ": 3252,
  "ĠÐ¾ÑĩÐµÑĢ": 3253,
  "ĠÐ¡ÑĤ": 3254,
  "ĠÐºÐ¾ÑĢÐ°Ð±": 3255,
  "ĠÐ¿Ð¾Ð¿ÑĢÐ¾Ð±ÑĥÐ¹": 3256,
  "ĠÑĢÐµÑĪÐµÐ½Ð¸Ðµ": 3257,
  "Ð¸ÑĦÐ¸Ð³Ð°": 3258,
  "ĠÐ³Ð¾Ð²Ð¾ÑĢÑıÑĤ": 3259,
  "ĠÐ¿ÑĢÐ¸Ð½Ð¸Ð¼": 3260,
  "ĠÑģÑĤÑĢÐ¾ÐºÐµ": 3261,
  "ĠÐ·Ð°Ð´Ð°ÑĩÐ°": 3262,
  "ÐĴÑĭÐ³Ð»ÑıÐ´Ð¸ÑĤ": 3263,
  "Ġ60": 3264,
  "ĠÐ½Ð¾ÑĥÑĤÐµ": 3265,
  "ĠâĢĵ": 3266,
  "ĠÑįÐºÑģÐ¿": 3267,
  "ĠÐ½Ð°ÑĩÐ°Ð»Ðµ": 3268,
  "ĠÐ¿Ð¾Ð´ÐºÐ»ÑİÑĩÐ¸ÑĤÑĮ": 3269,
  "ĠÑĦÐ°Ð¹Ð»Ñĭ": 3270,
  "ĠÑģÐ¾Ð±Ð°Ðº": 3271,
  "ĠÑĪÑĤÑĥÐºÐ°": 3272,
  "ĠÐ¸Ð´ÑĤÐ¸": 3273,
  "ĠPython": 3274,
  "Ð¾ÑĤÐ¾ÑĤÐµÑħ": 3275,
  "ĠÐ¿Ð¸ÑĪÑĥ": 3276,
  "ĠÑĢÐ¾Ð±Ð¾ÑĤÐ¾ÑĤÐµÑħ": 3277,
  "ÐĹÐ°ÑĤÐ¾": 3278,
  "ĠÑĨÐ²ÐµÑĤÐ°": 3279,
  "ĠÐºÑĢÐ°ÑģÐ¸Ð²Ð¾": 3280,
  "ĠÑĤÐ²Ð¾Ñı": 3281,
  "ĠÐ¾Ð±ÑĭÑĩÐ½Ð¾": 3282,
  "ĠÐ·Ð½Ð°ÑĩÐµÐ½Ð¸Ñı": 3283,
  "ĠÐ·Ð°Ð¿ÑĥÑģÐºÐ°": 3284,
  "ĠÐºÐ¾Ð¼Ð¿Ð»ÐµÐºÑĤ": 3285,
  "ĠÐ¸Ð³ÑĢÑĥ": 3286,
  "Ð»Ð°Ð³Ð¾Ð´Ð°ÑĢ": 3287,
  "ĠÐ¿ÑĢÐ¸Ð´ÑĥÐ¼Ð°Ð»": 3288,
  "ĠÐ¾ÑĦÐ¸ÑĨÐ¸": 3289,
  "ize": 3290,
  "Ġ}\\": 3291,
  "ĠÐ´Ð¾Ð¿Ð¾Ð»Ð½": 3292,
  "ĠÐ±ÑĭÑģÑĤÑĢÐµÐµ": 3293,
  "ĠÐ²ÐµÑĢÑģÐ¸Ð¸": 3294,
  "ĠÐ²ÐµÑĢÑģÐ¸Ñı": 3295,
  "ĠÑįÐ»ÐµÐ¼ÐµÐ½ÑĤ": 3296,
  "ĠÑįÐ»ÐµÐ¼ÐµÐ½ÑĤÐ¾Ð²": 3297,
  "ĠÑģÐµÑĤÐ¸": 3298,
  "ĠÑĤÐµÑĢÐ¼Ð¸Ð½": 3299,
  "ĠÑĦÐ¸Ð³Ð½Ñı": 3300,
  "ĠÐ¿ÑĢÐ¾ÑĨÐµÑģÑģ": 3301,
  "ĠÑģÐºÐ°Ð·Ð°Ð»Ð¸": 3302,
  "ĠÐ»Ð¸Ð½ÑĥÑħ": 3303,
  "ÐŁÐµÑĢÐ²ÑĭÐ¹": 3304,
  "Ð¾Ð¶Ð°Ð»ÑĥÐ¹": 3305,
  "ÐŁÑĢÐ°Ð²Ð´Ð°": 3306,
  "ÐĻÐµÑģ": 3307,
  "ÐºÑĢÐµÑĤÐ½Ð¾": 3308,
  "join": 3309,
  "Ð¡ÑĤÑĢÐ°Ð½Ð½Ð¾": 3310,
  "([": 3311,
  "42": 3312,
  "66": 3313,
  "92": 3314,
  "==": 3315,
  "aero": 3316,
  "ber": 3317,
  "blo": 3318,
  "ea": 3319,
  "eb": 3320,
  "fy": 3321,
  "iOS": 3322,
  "just": 3323,
  "nn": 3324,
  "od": 3325,
  "pi": 3326,
  "wor": 3327,
  "ymp": 3328,
  "ĉĠĠ": 3329,
  "Ġ.": 3330,
  "ĠE": 3331,
  "ĠJ": 3332,
  "ĠV": 3333,
  "Ġk": 3334,
  "Ġ~": 3335,
  "ÐµÐ¾Ð¼ÐµÑĤÑĢÐ¸": 3336,
  "ÑĤÐµÐº": 3337,
  "ÑĤÐµÐ¶": 3338,
  "ÑĤÐ°ÐºÑģ": 3339,
  "Ð½Ð¾Ðº": 3340,
  "Ð½ÐµÐ³Ð¾": 3341,
  "Ð½ÐµÐ²": 3342,
  "Ð»Ñĥ": 3343,
  "Ð»ÐµÑĢ": 3344,
  "ÐºÐ¸Ð½": 3345,
  "ĠÐ¿Ñģ": 3346,
  "ĠÐ¿Ð°Ðº": 3347,
  "ĠÐ¿ÐµÑĩ": 3348,
  "ĠÐ¿ÑĥÑģÑĤ": 3349,
  "ĠÐ½ÑĤÐ¸": 3350,
  "ĠÐ½Ð°Ð¶": 3351,
  "ĠÐ½ÐµÐ¼Ñĥ": 3352,
  "ĠÐ½Ð¸Ð¶": 3353,
  "ÑĩÐ°": 3354,
  "ÑĩÐµÑĤ": 3355,
  "ĠÐ²Ð¿": 3356,
  "ÑĤÐ¾ÑĢÑĥÑİ": 3357,
  "ĠÑģÑĥÑĤÐ¸": 3358,
  "Ð¼Ð°ÑĤ": 3359,
  "ĠÐºÐ¸Ð½": 3360,
  "ĠÐºÐ°Ð±": 3361,
  "ĠÑĤÐ°Ð±": 3362,
  "ĠÑĤÐµÐ¿": 3363,
  "ÐµÑĤÐ°ÑĢ": 3364,
  "ÐµÑĢÑģ": 3365,
  "ĠÐ´ÐµÑĢ": 3366,
  "ĠÐ´Ð·": 3367,
  "ĠÐ¼ÐµÑħ": 3368,
  "ÐµÐ½Ð½Ð°Ñı": 3369,
  "ÑħÐ¼": 3370,
  "ĠÐ±ÑĢÐ°ÑĤ": 3371,
  "Ð¾Ð¼Ð½Ð¸": 3372,
  "ĠÑĩÑĳÑĤ": 3373,
  "ĠÑĩÐ°ÑģÑĤ": 3374,
  "ĠÐ½ÐµÐºÐ¾ÑĤÐ¾ÑĢ": 3375,
  "Ð»Ð¸ÑĤ": 3376,
  "Ð»Ð¸ÑģÑĮ": 3377,
  "Ð±ÑĥÐ½": 3378,
  "ĠÑĢÑĭ": 3379,
  "ĠÑĢÐ°Ð¹": 3380,
  "ĠÑĢÑĥÑģ": 3381,
  "Ð°Ð½ÑĤ": 3382,
  "Ð¾ÑĢÐµ": 3383,
  "Ð¾ÑĢÑĭ": 3384,
  "ĠÐ½Ð°ÑģÑĤÑĢÐ¾Ð¹": 3385,
  "ĠÐ½Ð°ÑģÑĤÑĢÐ¾Ð¸ÑĤÑĮ": 3386,
  "Ð¸Ð½Ð¸": 3387,
  "ÐµÐ»Ð¾": 3388,
  "ÐµÐ»Ð°": 3389,
  "ÐµÐ»Ð°ÑĤÑĮ": 3390,
  "Ð¾ÑĤÑĥ": 3391,
  "ĠÑĥÐ¿": 3392,
  "ĠÑĥÐ¿ÑĢÐ°Ð²": 3393,
  "ĠÑĥÑĢÐ¾Ðº": 3394,
  "Ð·Ð¸Ñģ": 3395,
  "Ð¾Ð½Ð¾Ð¼": 3396,
  "Ð¾Ð±Ð¾ÑĢÐ¾ÑĤ": 3397,
  "ÐĴÑĤÐ¾ÑĢ": 3398,
  "ÐĶÐ¾Ð¼": 3399,
  "ĠÐ°Ð»Ð¸": 3400,
  "ÑĨÐ¾": 3401,
  "ĠÐ³Ð¾Ð»Ð¾Ð²": 3402,
  "ÐµÐ¹Ð½": 3403,
  "Ð°Ð¹ÑĤ": 3404,
  "Ð¸Ð¼Ð¾ÑģÑĤÐ¸": 3405,
  "Ð»ÑıÐ»": 3406,
  "ÐľÐ¼Ð¼": 3407,
  "ÐľÐ°ÑĢÐº": 3408,
  "ĠÐ»Ð¸Ð½": 3409,
  "ĠÐ¾ÑĤÐ¾Ð±ÑĢÐ°Ð¶": 3410,
  "ĠÑģÑĤÐ°ÑĤ": 3411,
  "ĠÑģÑĤÐ°Ð±": 3412,
  "ĠÑģÑĤÐµÐ¿": 3413,
  "ĠÑģÑĤÐ°Ð»Ð¾": 3414,
  "Ð°Ð±Ð°ÑĤ": 3415,
  "ĠÑıÐ²": 3416,
  "ĠÑĦÐ¿Ñģ": 3417,
  "ĠÐ²ÑĭÑĪÐµ": 3418,
  "Ð¸Ð²Ð°Ñİ": 3419,
  "ĠÐ¿Ð¾Ð´ÑĥÐ¼Ð°Ð»": 3420,
  "Ð°Ð»ÑĮÐ½Ð°Ñı": 3421,
  "ÐļÐ°ÐºÑĥÑİ": 3422,
  "ÑĥÑģÐ°": 3423,
  "ÑĥÑģÑĭ": 3424,
  "ĠÐ¿Ð¾Ð»Ð½Ð¾ÑģÑĤÑĮÑİ": 3425,
  "ÐĹÐ°Ðº": 3426,
  "ÐĳÐµÐ±ÐµÐ±Ðµ": 3427,
  "ÐŁÑĢÑıÐ¼": 3428,
  "ĠÑģÐ»ÐµÐ²Ð°": 3429,
  "ĠÑģÐ¿Ð°ÑĤÑĮ": 3430,
  "ĠÑģÐ°Ð¼Ð¾Ð¼Ñĥ": 3431,
  "ÑįÑį": 3432,
  "Ð¸Ð³Ð½": 3433,
  "106": 3434,
  "ĠÐºÐ¾Ð¼Ð°Ð½Ð´Ð°": 3435,
  "elif": 3436,
  "ĠÑģÑĤÑĢÐ¸Ð¼": 3437,
  "ĠÐ¾Ð¿ÐµÐ½Ñģ": 3438,
  "ĠÐºÐ¾ÑĤÐ¾ÑĢÑĭÑħ": 3439,
  "Ð°ÑĨÐ¸Ð¹": 3440,
  "olymp": 3441,
  "ĠÐ¿Ð°ÑĢÑĥ": 3442,
  "ĠÑĤÑĢÐµÑĤÑĮ": 3443,
  "ĠÑĤÑĢÐµÑĥÐ³Ð¾Ð»ÑĮ": 3444,
  "ĠÐ¿Ð¾Ð»ÑĥÑĩÐ¸ÑĤÑģÑı": 3445,
  "ĠÑĢÐµÑĪÐ¸ÑĤÑĮ": 3446,
  "Ð½Ð°ÑĩÐ°Ð»ÑĮÐ½Ð¾": 3447,
  "ĠÐ¿ÑĢÐ°Ð²Ð¸Ð»ÑĮ": 3448,
  "ĠÐ³Ð¾Ð²Ð¾ÑĢÐ¸ÑĤ": 3449,
  "ĠÐ·Ð°Ð±ÑĢÐ°Ð»": 3450,
  "ĠÑģÑĤÑĢÐ¾ÐºÐ°": 3451,
  "ĠÐ¿Ð¸ÑĤÐ°Ð½Ð¸Ðµ": 3452,
  "150": 3453,
  "ĠÐĿÐ¾": 3454,
  "ĠÐ·Ð°Ð´Ð°ÑĩÐµ": 3455,
  "load": 3456,
  "Ġ600": 3457,
  "Ð°Ð°Ð°Ð°": 3458,
  "ĠÐ°Ð¹ÑĦ": 3459,
  "ĠÐ¿ÑĢÐ¸ÐºÐ¾Ð»": 3460,
  "ĠÐ·Ð²ÑĥÑĩÐ¸ÑĤ": 3461,
  "ĠÐ²Ð°ÑĢÐ¸Ð°Ð½ÑĤÑĭ": 3462,
  "asus": 3463,
  "ĠÑĤÐµÑģÑĤÐ°": 3464,
  "ĠÐ¿ÑĢÐ¾Ð²ÐµÑĢÐ¸ÑĤÑĮ": 3465,
  "ĠÑģÐ¸Ð½ÑĤÐ°ÐºÑģ": 3466,
  "ĠÐ·Ð°Ð½Ð¸Ð¼": 3467,
  "255": 3468,
  "ĠÑģÐ¾Ð·Ð´Ð°ÑĤÑĮ": 3469,
  "ĠÐ¿Ð¾ÑģÐ¼Ð¾ÑĤÑĢÐµÐ»": 3470,
  "ĠÐºÑĥÑĢÑģ": 3471,
  "ĠÑģÑĤÐ¾ÑĢÐ¾Ð½Ñĥ": 3472,
  "ĠÑĢÐµÐ°Ð»ÑĮÐ½Ð¾": 3473,
  "Ð°ÑĤÑĥÑĢÑĥ": 3474,
  "Ð°ÑĤÑĥÑĢÐ°": 3475,
  "ĠÑĥÑģÐ»Ð¾Ð²Ð¸Ñı": 3476,
  "ĠÐķÑģ": 3477,
  "ĠÐ¿Ð¾Ð·Ð²Ð¾Ð½": 3478,
  "ĠÐ¸ÑģÐºÐ°ÑĤÑĮ": 3479,
  "ĠÑħÐ²Ð°ÑĤÐ¸ÑĤ": 3480,
  "Ð±Ð¸ÑĢÐ°ÑĤÑĮ": 3481,
  "ĠÐ¸ÑģÑħÐ¾Ð´": 3482,
  "ĠÑĢÐ¾ÑĥÑĤÐµÑĢ": 3483,
  "ÐŁÐ¾Ð»ÑĥÑĩ": 3484,
  "ĠÐºÐ¾Ð¾ÑĢÐ´Ð¸Ð½Ð°ÑĤÑĭ": 3485,
  "ĠĠĠĠĠĠĠĠĠĠĠĠĠĠĠĠĠĠĠĠĠĠĠĠĠĠĠĠĠĠĠĠĠĠĠĠĠĠĠĠĠĠĠĠĠĠĠĠĠĠĠĠĠĠĠĠĠĠĠĠĠĠĠĠ": 3486,
  "post": 3487,
  "ĠÐ¿Ð¾Ð¼ÐµÐ½ÑıÐ»": 3488,
  "ĠÑĢÐµÐ´Ð°Ðº": 3489,
  "ĠÐ½Ð°Ð»Ð¸Ñĩ": 3490,
  "ĠÐ¼Ð°ÑĪÐ¸Ð½": 3491,
  "ĠÑĥÐ·Ð½": 3492,
  "ÐĺÐ½ÑĤÐµÑĢÐµÑģ": 3493,
  "ĠÑģÐ¾Ð²Ð¿Ð°Ð´": 3494,
  "ÐľÐ¾Ð³Ñĥ": 3495,
  "ĠÐ¿Ð°Ð¼ÑıÑĤÑĮ": 3496,
  "ĠÐ·Ð°ÑģÑĥÐ½": 3497,
  "ĠÐ¿ÑĢÐ¸Ð½ÑĨÐ¸Ð¿Ðµ": 3498,
  "ĠÐ¾ÐºÑĤÑıÐ±ÑĢÑı": 3499,
  "ĠÑĢÑıÐ´Ð¾Ð¼": 3500,
  "ĠÐ»Ð¸Ð¼Ð¸ÑĤ": 3501,
  "ĠÑĦÐ°ÐºÑĤÑĥ": 3502,
  "âĢĵ\\": 3503,
  "Ð¿Ð¾ÑģÐ»ÐµÐ´": 3504,
  "ĠÑģÐ¾Ð¾ÑĤÐ²ÐµÑĤÑģÑĤÐ²": 3505,
  "ĠÐ±Ð°Ð»ÐºÐ¾Ð½Ðµ": 3506,
  "âĤ½": 3507,
  "Ð±ÐµÑģÐ¿Ð»Ð°ÑĤÐ½Ð¾": 3508,
  ")']": 3509,
  "05": 3510,
  "75": 3511,
  "93": 3512,
  "AR": 3513,
  "AT": 3514,
  "BF": 3515,
  "Pro": 3516,
  "_{": 3517,
  "bel": 3518,
  "dt": 3519,
  "dns": 3520,
  "ff": 3521,
  "fi": 3522,
  "ity": 3523,
  "md": 3524,
  "ne": 3525,
  "nout": 3526,
  "om": 3527,
  "open": 3528,
  "rjust": 3529,
  "ser": 3530,
  "ste": 3531,
  "vs": 3532,
  "Â°": 3533,
  "Ð®": 3534,
  "ĉĠĠĠĠĠĠĠĠĠĠĠĠĠĠĠĠ": 3535,
  "Ġ$": 3536,
  "ĠÍ": 3537,
  "ĠÐ¦": 3538,
  "ĠÐ¨": 3539,
  "Ð°ÑĤÐ¾": 3540,
  "ÑĤÐ¾Ð¿": 3541,
  "Ð¸ÑĨ": 3542,
  "ÑĢÐµÑĤ": 3543,
  "ÑģÐµÐ¹": 3544,
  "ÑĥÑĥ": 3545,
  "Ð»Ð°Ð·": 3546,
  "Ð»Ð°Ð¼Ð¸": 3547,
  "ĠÐ¿Ð°Ð´": 3548,
  "ÑıÐµÑĤÑģÑı": 3549,
  "ĠÐ²Ð¿Ð¾Ð»Ð½Ðµ": 3550,
  "ĠÑģÐ½": 3551,
  "ĠÑģÐ¾ÑģÑĤÐ¾": 3552,
  "ĠÑģÑħÐ¾Ð´": 3553,
  "ĠÑģÑĥÐ¿": 3554,
  "ĠÐºÑĢÐ°": 3555,
  "ĠÐºÐ¾ÑģÑĤ": 3556,
  "ĠÑĤÐ´": 3557,
  "ĠÑĤÐ¾Ðº": 3558,
  "ĠÑĤÑĢÑĥÐ±": 3559,
  "ÐĿÐ¾Ð²": 3560,
  "ĠÐ¸ÑĦ": 3561,
  "ĠÐ´Ð°Ð²": 3562,
  "ĠÐ¼Ð°Ñģ": 3563,
  "ĠÐ¼Ð°ÑģÑĤÐµÑĢ": 3564,
  "ĠÐ¼Ð¾Ð´ÐµÐ»Ð¸": 3565,
  "ÐµÐ½Ðµ": 3566,
  "ÐµÐ½ÐµÑĢ": 3567,
  "ÑĪÐ¾Ð¿": 3568,
  "Ð°Ð»ÐºÐ¸": 3569,
  "ĠÐ¿ÑĢÐµ": 3570,
  "Ð¾Ð²Ð°Ð½Ð¸Ñı": 3571,
  "Ð¾Ð²Ð°ÑĤÐµÐ»ÑĮ": 3572,
  "ÑħÐ¸Ð¼": 3573,
  "ÑİÐº": 3574,
  "ÑİÐ±": 3575,
  "ĠÑĩÐµÑħ": 3576,
  "ĠÑĩÑĥÐ²": 3577,
  "ĠÐ·ÐµÐ¼": 3578,
  "ĠÑĢÐ°Ð¼": 3579,
  "ĠÑĢÐ¶Ð°ÑģÑĤ": 3580,
  "ĠÐ½Ð°ÑģÐºÐ¾Ð»ÑĮÐºÐ¾": 3581,
  "Ð¸ÑĤÐ°Ð¹": 3582,
  "ÐŁÐ¾ÑģÑĤÐ°Ð²": 3583,
  "tel": 3584,
  "temp": 3585,
  "ĠÑįÑĦÑĦÐµÐºÑĤ": 3586,
  "ÑĳÑģ": 3587,
  "ÐĴÐ¼": 3588,
  "ÐĴÐ°Ñĥ": 3589,
  "Ð°Ð´ÑĮ": 3590,
  "Ð°Ð·Ð´": 3591,
  "ÐļÐ¾Ð´": 3592,
  "ÐļÐ¾ÑĤÐ¾ÑĢ": 3593,
  "ÐŀÐ´Ð¸Ð½": 3594,
  "ÐŀÐ¾Ð¾": 3595,
  "ĠÐ³Ð¾": 3596,
  "ĠÐ³Ð°Ð·": 3597,
  "ĠÐ¿Ð¾Ð¸ÑģÐº": 3598,
  "ÑĦÐµÑĢ": 3599,
  "ĠÐ»ÑĥÑĩ": 3600,
  "ĠÐ»Ð¸ÑĪ": 3601,
  "ĠÐ»Ð¸ÑĪÑĮ": 3602,
  "Ð°ÐµÑĤÐµ": 3603,
  "ĠÑģÑĤÑĢÐ°ÑĪ": 3604,
  "ĠÑģÑĤÐ°Ð²Ð¸ÑĤÑĮ": 3605,
  "ĠÑĤÐ°ÐºÐ¸Ð¼": 3606,
  "ÑĢÐ¸Ð¿": 3607,
  "core": 3608,
  "cool": 3609,
  "ĠÐ²ÑģÐ¿Ð¾Ð¼": 3610,
  "ĠÑĦÐ»": 3611,
  "ÐµÐºÐ¾Ð¼": 3612,
  "Ð°Ð¿ÑĥÑģÑĤ": 3613,
  "ĠÐ¾Ð±ÐµÐ´": 3614,
  "ĠÐ¾Ð±ÑĥÑĩ": 3615,
  "ĠÐ¿ÐµÑĢÐµÐ½": 3616,
  "ĠÐ¿ÐµÑĢÐµÑģ": 3617,
  "comput": 3618,
  "ĠÑħÐ¾ÑģÑĤ": 3619,
  "Ð¾Ð·Ð½Ð°Ñĩ": 3620,
  "Ð¾Ð·Ð²Ð¾Ð½": 3621,
  "Ð§ÐµÐ³Ð¾": 3622,
  "ÐºÑĥÐ»": 3623,
  "ÐºÑĥÑİ": 3624,
  "ĠÐ¶ÐµÑģÑĤ": 3625,
  "ÐµÑģÑĤÐµ": 3626,
  "ÑĥÐ¼Ð°Ð¹": 3627,
  "org": 3628,
  "ĠÑĢÐ°Ð·ÑĢÐµÑĪ": 3629,
  "ĠÑģÐºÐ¸Ð½ÑĥÑĤÑĮ": 3630,
  "ÑĭÐ²Ð°Ñİ": 3631,
  "ÑĭÐ²Ð°ÐµÑĪÑĮ": 3632,
  "Ð°ÑĩÐ¸Ð²": 3633,
  "ĠÑĪÐ¸ÑĢ": 3634,
  "ĠÐ¾Ð´Ð½Ñĥ": 3635,
  "ĠÐ´Ð°ÑĳÑĤ": 3636,
  "ĠÑģÐ¿ÐµÑĨÐ¸": 3637,
  "âĢ¢": 3638,
  "ĠÑįÑĤÐ°Ð¿": 3639,
  "ĠÐŁÐµÑĤÐµÑĢ": 3640,
  "Ð¢Ð°ÐºÐ¾Ð¹": 3641,
  "ÐłÐ°Ñģ": 3642,
  "ÑįÑĤÐ¾": 3643,
  "ĠÐ´ÑĢÑĥÐ³Ð°Ñı": 3644,
  "ÐµÑħÐ°Ð»": 3645,
  "ĠÐ·Ð°ÐºÐ°Ð·Ð°ÑĤÑĮ": 3646,
  "ÐĽÑĥÑĩÑĪÐµ": 3647,
  "ĠÑģÐ¾ÐµÐ´Ð¸Ð½": 3648,
  "ĠÐ½Ð¾Ð²Ð¾Ð¹": 3649,
  "ĠÐ½Ð¾Ð²Ð¾Ð³Ð¾": 3650,
  "ĠÑĩÐ¸ÑģÑĤÐ¾": 3651,
  "ĠÐ¿ÐµÑĢÐ²Ð¾Ðµ": 3652,
  "ĠÑĤÑĢÐµÐ±": 3653,
  "etic": 3654,
  "ĠÐ¿ÑĢÐ¾Ð±Ð¾Ð²Ð°Ð»": 3655,
  "ĠÐ²Ð¸Ð´Ñİ": 3656,
  "ĠÐ½Ð°Ð¹Ð´": 3657,
  "ĠÐ¼Ð¾Ñı": 3658,
  "ĠÐĿÐ¢Ðĺ": 3659,
  "ĠÐ°ÑĢÐ³": 3660,
  "low": 3661,
  "ĠÐ½ÐµÐ¿Ð»Ð¾ÑħÐ¾": 3662,
  "ĠÐ½Ð¾ÑĥÑĤÐ°": 3663,
  "ĠÐ¼Ð°Ð¼Ð°Ð½": 3664,
  "ĠÐ°ÐºÐºÑĥ": 3665,
  "ĠÐ°ÐºÑĤÐ¸Ð²": 3666,
  "ĠÑĥÐ³Ð»Ð¾Ð²": 3667,
  "ĠÑĦÑĥÐ½ÐºÑĨÐ¸Ñİ": 3668,
  "end": 3669,
  "Ð¨ÑĤÐ¾": 3670,
  "ĠÑĦÐ¾ÑĢÐ¼Ðµ": 3671,
  "Ġcase": 3672,
  "Ġ70": 3673,
  "ĠÐ²ÑĤÐ¾ÑĢÐ¾Ð¼": 3674,
  "ĠÑģÑĤÐ¾Ð»Ðµ": 3675,
  "ÑıÑĤÐ¸Ñı": 3676,
  "ĠÑģÑĩÐ¸ÑĤÐ°ÑĤÑĮ": 3677,
  "ÑĥÐ³Ð¾Ð»ÑĮ": 3678,
  "()))": 3679,
  "ĠÐºÐ»Ð°ÑģÑģÐ½ÑĭÐ¹": 3680,
  "ÑĮÑİÑĤÐµÑĢ": 3681,
  "ĠÐ¾ÑĤÐºÑĢÑĭ": 3682,
  "ĠÐ¿ÑĢÐ¸Ð½ÑĤÐµÑĢÐ°": 3683,
  "ĠÐ¿Ð¾ÑģÐ¼Ð¾ÑĤÑĢÑİ": 3684,
  "iki": 3685,
  "ĠÐ·Ð½Ð°ÑĩÐµÐ½Ð¸Ðµ": 3686,
  "ĠÐ·Ð°Ð¿ÑĥÑģÐºÐ°ÑĤÑĮ": 3687,
  "ĠÐ°Ð´Ð¼Ð¸Ð½": 3688,
  "ĠÐ°Ð´ÑĢÐµÑģ": 3689,
  "ĠÐ¼Ð°ÑĤÑĢÐ¸ÑĨÑĭ": 3690,
  "ĠÐ¿ÑĢÐ¸Ð´ÑĥÐ¼Ð°ÑĤÑĮ": 3691,
  "ĠÑĤÐµÑħÐ½Ð¾Ð»Ð¾Ð³": 3692,
  "ĠÐ¾ÑĦÐ¸Ñģ": 3693,
  "express": 3694,
  "ĠÐ¾ÑĢÐ¸Ð´Ð¶": 3695,
  "ĠÐ¼ÐµÑģÑĤÐ°": 3696,
  "ĠÐ¿Ð¾ÑģÑĤÐ°Ð²Ð¸ÑĤÑĮ": 3697,
  "gramm": 3698,
  "ĠÑģÐ²ÐµÑĤÐ¾Ð´Ð¸": 3699,
  "Ð¾Ð¹Ð´ÑĳÑĤ": 3700,
  "ÑĦÐ¸Ð³ÑĥÑĢÐ°": 3701,
  "ĠÐ´ÐµÐ¹ÑģÑĤÐ²Ð¸ÑĤÐµÐ»ÑĮÐ½Ð¾": 3702,
  "ĠÐ¸Ð½ÑĤÐµÐ»": 3703,
  "ĠÑģÑĥÑīÐµÑģÑĤÐ²ÑĥÐµÑĤ": 3704,
  "buk": 3705,
  "ĠÑĢÐµÐºÐ»Ð°Ð¼": 3706,
  "ĠÐ¿ÑĢÐ¾Ð³ÑĢÐ°Ð¼Ð¼Ð¸ÑĢÐ¾Ð²Ð°Ð½Ð¸Ñı": 3707,
  "ĠÐ¼Ð°Ð½Ð¸Ð¿ÑĥÐ»ÑıÑĤÐ¾ÑĢÐ°": 3708,
  "ĠÐ¿ÑĢÐµÐ¿Ð¾Ð´": 3709,
  "ÐĿÑĥÐ¶Ð½Ð¾": 3710,
  "ĠÐ·Ð°Ð²Ð¸ÑģÐ¸ÑĤ": 3711,
  "ĠÐ°Ð»ÑĮÐ±": 3712,
  "ĠÐ»ÐµÐ¶Ð¸ÑĤ": 3713,
  "ĠÐ¼ÑĭÑĪÐ¸": 3714,
  "ĠÑģÐ»ÑĥÑĩÐ°Ð¹Ð½Ð¾": 3715,
  "ĠÐ°Ð²ÑĤÐ¾Ð¼Ð°ÑĤÐ¸ÑĩÐµÑģ": 3716,
  "ĠÐ²ÐµÑĩÐµÑĢÐ¾Ð¼": 3717,
  "aliexpress": 3718,
  "INF": 3719,
  "ĠÐ¿Ð¾Ð¼Ð¾ÑīÑĮÑİ": 3720,
  "ĠÐłÐ¾ÑģÑģÐ¸Ð¸": 3721,
  "bely": 3722,
  "dtf": 3723,
  "noutbuk": 3724,
  "ÑħÐ¸Ð¼ÐµÐ´": 3725,
  ")?": 3726,
  "800": 3727,
  "=&": 3728,
  "FI": 3729,
  "PS": 3730,
  "The": 3731,
  "]Â«": 3732,
  "ava": 3733,
  "ba": 3734,
  "bstu": 3735,
  "cc": 3736,
  "email": 3737,
  "fro": 3738,
  "git": 3739,
  "hy": 3740,
  "hel": 3741,
  "ii": 3742,
  "na": 3743,
  "nc": 3744,
  "pop": 3745,
  "play": 3746,
  "sa": 3747,
  "ti": 3748,
  "top": 3749,
  "ual": 3750,
  "und": 3751,
  "Ì¶": 3752,
  "à¥": 3753,
  "ĉĠĠĠĠĠĠĠĠ": 3754,
  "Ġ&": 3755,
  "Ġ/": 3756,
  "Ġw": 3757,
  "Įļ": 3758,
  "ÑĤÑĥÐ´Ð°": 3759,
  "ÑģÐ»": 3760,
  "ÑģÐ¾Ð²": 3761,
  "Ð½ÑĮ": 3762,
  "Ð½ÐµÐ¼": 3763,
  "ÑĥÐ»Ð¸": 3764,
  "Ð»ÐµÐ½Ð¸ÐµÐ¼": 3765,
  "ÑĮÐµ": 3766,
  "ÐºÐ¾ÑĢ": 3767,
  "ĠÐ¿Ð°Ð½": 3768,
  "ĠÐ¿Ð¸ÑĢ": 3769,
  "ĠÐ¿ÑĥÑĤÑĮ": 3770,
  "ĠÐ¿Ð¾Ð¶Ð°Ð»ÑĥÐ¹": 3771,
  "ĠÐ½ÐµÐ±": 3772,
  "ĠÐ½Ð¾Ñĩ": 3773,
  "ĠÐ²Ð½": 3774,
  "ĠÐ²ÑģÑĤ": 3775,
  "ĠÐ²ÐµÑģ": 3776,
  "ĠÐ²ÑĢÐ°Ñī": 3777,
  "ĠÑģÐµ": 3778,
  "ĠÑģÐ¾Ð´": 3779,
  "ĠÑģÐ¾Ñģ": 3780,
  "ĠÑģÐ²ÐµÑĢ": 3781,
  "Ð´ÐµÐ½Ð¸Ðµ": 3782,
  "ĠÐºÐ¾Ð¿": 3783,
  "ĠÑĤÐ°": 3784,
  "ĠÑĤÐ¾Ð¼Ñĥ": 3785,
  "ĠÑĤÐ°Ð¹Ð¼": 3786,
  "Ð²Ð¸": 3787,
  "Ð²ÑĤÐ¾ÑĢ": 3788,
  "ÐĿÐ¸": 3789,
  "ÐĿÐ°Ñģ": 3790,
  "ÐµÑĤÐºÐ¸": 3791,
  "ĠÐ¸Ñī": 3792,
  "ĠÐ´Ð¾Ð²": 3793,
  "ĠÐ´Ð°Ð¼": 3794,
  "ĠÐ´Ð¸Ð·": 3795,
  "ĠÐ¼Ð°ÑĤÑĮ": 3796,
  "ĠÐ¼Ð¸Ð»": 3797,
  "ĠÐ¼Ð°Ð¹": 3798,
  "ÐµÐ½Ð½Ð¾Ð³Ð¾": 3799,
  "ÑĪÑĤ": 3800,
  "Ð°Ð»ÐºÐ°": 3801,
  "ĠÐ¿ÑĢÐ¾Ð¼": 3802,
  "ĠÐ¿ÑĢÐ°ÐºÑĤÐ¸": 3803,
  "Ð¾Ð²Ð½Ð¾": 3804,
  "Ð¿ÑĢÐ¸": 3805,
  "ÑħÐ°Ð±": 3806,
  "ÐĲÑĢ": 3807,
  "Ð¾Ð´Ð½Ð¾": 3808,
  "ĠÐ±Ð»Ð¾Ðº": 3809,
  "ĠÑĢÑĦ": 3810,
  "Ð³Ð¸Ð½": 3811,
  "Ð°Ð½Ð½Ð°Ñı": 3812,
  "Ð°Ð½Ð½Ð¾Ð¹": 3813,
  "ĠÐ½Ð°Ð¾Ð±Ð¾ÑĢÐ¾ÑĤ": 3814,
  "Ð·Ð´": 3815,
  "Ð·ÑĭÐ²": 3816,
  "Ð¸ÑĤÐ¾Ð½": 3817,
  "ĠÑįÐ¿": 3818,
  "ĠÑįÐ¿Ð»": 3819,
  "ĠÑįÐ»ÐµÐºÑĤ": 3820,
  "ÐĴÐµÑĢ": 3821,
  "ÐĺÑħ": 3822,
  "ÐĺÐĺ": 3823,
  "ÐĶÐ¾": 3824,
  "ÐļÐ°Ð¶": 3825,
  "ÐŀÑħ": 3826,
  "ÐŀÑģÑĤ": 3827,
  "ĠÐºÐ°ÐºÐ¾Ð³Ð¾": 3828,
  "Ð½Ð¸ÑĤÑĮ": 3829,
  "Ð½Ð¸ÑĪÑĮ": 3830,
  "Ð½Ð¸ÑĨÐ°": 3831,
  "ĠÐ³Ð¾Ð»": 3832,
  "ĠÐ³Ð°ÑĢ": 3833,
  "Ð¡ÐµÑĢ": 3834,
  "Ð¡Ð¼Ð¾ÑĤÑĢÐ¸": 3835,
  "Ð¾ÐºÐ¾Ð²": 3836,
  "ÐľÐµÐ½Ñı": 3837,
  "ĠÐ»Ð¾Ð¼": 3838,
  "ĠÐ»Ð¾Ðº": 3839,
  "ĠÐ»Ð°Ð±": 3840,
  "ÐµÐ½Ð¸ÑĤÑĮ": 3841,
  "ÐµÐ½Ð¸ÑĢÐ¾Ð²": 3842,
  "ĠÑĤÐ°ÐºÐ¶Ðµ": 3843,
  "ÑĢÐ¸ÑĨ": 3844,
  "ĠÑĦÑĥ": 3845,
  "ĠÑĦÐ°ÐºÑĤ": 3846,
  "ĠÐ¶Ð¸Ð²": 3847,
  "ĠÐ¶Ð¸ÑĢ": 3848,
  "Ð¾Ð¿ÑĭÑĤ": 3849,
  "Ð£Ð£": 3850,
  "Ð¾ÑĩÐ½Ð¾": 3851,
  "ĠÐ²ÑĭÐºÐ»ÑİÑĩ": 3852,
  "ĠÐ²ÑĭÑĢÐ°Ð¶": 3853,
  "Ð¸Ð²Ð°ÑİÑĤ": 3854,
  "ĠÐ¾Ð±Ð°": 3855,
  "ĠÐ¾Ð±ÑĢÐ°Ð±Ð¾ÑĤ": 3856,
  "Ð¾ÑģÑĤÐ¾ÑıÐ½": 3857,
  "ÑĤÐ¸ÑĢÑĥ": 3858,
  "ĠÐ¿Ð¾Ð´ÑĢÑıÐ´": 3859,
  "ĠÐ¿Ð¾Ð´Ð³Ð¾ÑĤÐ¾Ð²": 3860,
  "Ð°Ð¶Ñĥ": 3861,
  "store": 3862,
  "ÑĥÐ¼Ñı": 3863,
  "ĠÑĢÐ°Ð·Ð¼ÐµÑĢ": 3864,
  "ÑĭÐ²Ð°ÑİÑĤ": 3865,
  "ĠÐ¼ÐµÐ½ÑıÐµÑĤÑģÑı": 3866,
  "ĠÐ·Ð½Ð°ÐµÑĤ": 3867,
  "habr": 3868,
  "ĠÐ¿Ð¾Ð»Ð½Ð¾": 3869,
  "ÐŁÑĢÐµÐ´": 3870,
  "ature": 3871,
  "Ð¥Ð·": 3872,
  "ĠÑĢÐ°Ð±Ð¾ÑĤÐ°Ð»": 3873,
  "ĠÐ¸Ð½Ð´": 3874,
  "ĠÐ¸Ð½Ð¾Ð³Ð´Ð°": 3875,
  "ĠÑģÐ¿Ð°ÑģÐ¸Ð±Ð¾": 3876,
  "âĢĴ": 3877,
  "ĠÐºÐ¾ÑĦ": 3878,
  "ĠÐºÐ¾Ñį": 3879,
  "ÐłÐ°Ð±Ð¾ÑĤ": 3880,
  "ĠÑģÐ°Ð¼Ð°": 3881,
  "ĠÐºÐ¾Ð½ÑĨÐ°": 3882,
  "ĠÐºÐ¾Ð½ÑĤÐ°Ðº": 3883,
  "ĠÐºÐ¾Ð½ÑĨÐµ": 3884,
  "ĠÐºÐ¾Ð½ÐºÑĢÐµÑĤÐ½Ð¾": 3885,
  "ĠÐºÐ¾Ð½ÑĦÐ¸Ð³ÑĥÑĢÐ°": 3886,
  "ÐĵÐ»Ñı": 3887,
  "ÐĵÐ¾Ð²Ð¾ÑĢ": 3888,
  "ÑįÐº": 3889,
  "Ð¸Ð³Ð´Ðµ": 3890,
  "Ð´ÑĥÑī": 3891,
  "ĠÐ´ÑĢÑĥÐ³Ð¾Ð³Ð¾": 3892,
  "ĠÐ¿Ð¾ÑĤÑĢÐµÐ±": 3893,
  "ĠÑģÑĤÑĢÐ°Ð½Ð¸": 3894,
  "ÑĩÐ¸ÑĤÐ°ÑĤÑĮ": 3895,
  "ĠÐºÑĢÐµÐ¿": 3896,
  "form": 3897,
  "ÑģÑĤÐ²Ñĥ": 3898,
  "ĠÐ·Ð°Ð´Ð°Ð½Ð¸Ñı": 3899,
  "ĉĉĠĠĠĠĠĠĠ": 3900,
  "Ġmap": 3901,
  "Ġmatrix": 3902,
  "ĠÐ²Ð¾Ð·Ð´Ñĥ": 3903,
  "ĠÐľÐ¾ÑģÐº": 3904,
  "ray": 3905,
  "Ð°Ð·ÑĭÐ²Ð°Ð»": 3906,
  "ĠÑĤÑĢÑĳÑħ": 3907,
  "ĠÐ¼ÑĭÑĪÑĮ": 3908,
  "ĠÑĥÐ´Ð°ÑĢÐ¾Ð²": 3909,
  "ĠÑĢÐ°ÑģÑĪ": 3910,
  "ĠÑĢÐµÑĪÐ¸Ð»Ð¸": 3911,
  "ĠÐĲÐ½Ð´": 3912,
  "ĠÐ²Ð¸Ð´ÑıÑħ": 3913,
  "ĠÐ¾ÑģÐ¸": 3914,
  "ĠÐ¾ÐºÐ°Ð·ÑĭÐ²Ð°ÐµÑĤÑģÑı": 3915,
  "ĠÐ¿ÑĢÐ°Ð²Ð´Ð°": 3916,
  "ÑĤÐµÐ°ÑĤ": 3917,
  "ĠÐ½Ð°Ð¹Ð´Ñĥ": 3918,
  "ĠÐºÐ°ÑĢÑĤÐ°": 3919,
  "ĠÐ¼Ð¾ÐµÐ³Ð¾": 3920,
  "ĠÐ³Ð¾Ð²Ð¾ÑĢÐ¸ÑĤÑĮ": 3921,
  "ĠÐ¿ÑĢÐµÐ´Ð¿Ð¾ÑģÐ»ÐµÐ´": 3922,
  "ĠÐ·Ð°Ð±ÑĭÐ»": 3923,
  "Ð¡ÑĤÐ¸Ð»": 3924,
  "ĠÐ¼Ð°ÑĤÐµÑĢÐ¸": 3925,
  "ĠÐ·Ð°Ð´Ð°ÑĩÑĥ": 3926,
  "ĠÐ°Ð¹Ð´Ð¸": 3927,
  "Ġ\"('": 3928,
  "ÑĤÑĢÐ°Ðº": 3929,
  "ĠÐ¿ÑĢÐ¸Ð¼ÐµÑĢÑĥ": 3930,
  "ĠÑĥÐ³Ð»Ñĭ": 3931,
  "ĠÑĤÐµÐ»Ð°": 3932,
  "ĠÑĤÐµÐ»ÐµÐ³": 3933,
  "ĠÐ¿ÑĢÑıÐ¼Ð¾": 3934,
  "ĠÐ½Ð°ÑĩÐ°Ð»": 3935,
  "ĠÐ¸Ð³ÑĢÐ°ÑĤÑĮ": 3936,
  "ions": 3937,
  "ĠÐ¾ÑĤÐ²ÐµÑĤÑĭ": 3938,
  "ÐĲÑħÐ°ÑħÐ°ÑħÐ°": 3939,
  "ĠÑģÐ°Ð¹ÑĤÑĭ": 3940,
  "ĠÑĤÐµÑģÑĤÐ¾Ð²": 3941,
  "own": 3942,
  "ows": 3943,
  "ĠÐ¸Ð´ÑĳÐ¼": 3944,
  "ĠÐºÐ¾Ð¼Ð¿ÑĮÑİÑĤÐµÑĢ": 3945,
  "Ġ[[": 3946,
  "Ġ[]": 3947,
  "ĠÐ²ÑģÑıÐºÐ¸Ñħ": 3948,
  "ĠÐ¼ÐµÑĤÐ°Ð»": 3949,
  "ĠÐ¼ÐµÑĤÐ¾Ð´": 3950,
  "ĠÐ¿Ð¸ÑĪÑĥÑĤ": 3951,
  "ĠÐ¾ÑĪÐ¸Ð±ÐºÑĥ": 3952,
  "ĠÐ¿ÑĢÐ¾ÑĪÐ»": 3953,
  "ĠÐºÐ½Ð¾Ð¿ÐºÐ¸": 3954,
  "ĠÐºÐ½Ð¾Ð¿ÐºÑĥ": 3955,
  "ÐĸÐ°Ð»ÑĮ": 3956,
  "ĠÐ¾ÑĤÐ¿ÑĢÐ°Ð²Ð»Ñı": 3957,
  "ĠÐĳÐµÐ»": 3958,
  "ĠÐ½ÐµÐ´ÐµÐ»Ñİ": 3959,
  "ĠÑĥÐ²Ð¸Ð´ÐµÐ»": 3960,
  "mini": 3961,
  "ÑģÐ¸Ñİ": 3962,
  "ĠÐ±Ð°Ð»Ð»Ð¾Ð²": 3963,
  "indows": 3964,
  "ĠÑĤÐµÐ»ÐµÑĦÐ¾Ð½Ðµ": 3965,
  "ĠÐ²ÑģÑĤÐ°Ð²Ð¸ÑĤÑĮ": 3966,
  "ĠÐ¾ÑĤÐ´ÐµÐ»ÑĮ": 3967,
  "ĠÑģÐ¼Ð¾Ð³Ñĥ": 3968,
  "ĠÐ¼Ð°ÐºÑģÐ¸Ð¼ÑĥÐ¼": 3969,
  "ĠÐ¿ÑĢÐ¾ÑģÑĤÑĢÐ°Ð½": 3970,
  "ĠÑĤÑĢÐ°Ð½Ð·Ð¸Ñģ": 3971,
  "ĠÐ±ÐµÐ»ÑĭÐ¹": 3972,
  "ĠÐ¿Ð¾ÑģÑĤÐ°Ð²Ð¸Ð»": 3973,
  "ĠÐŁÐ¸ÑĤÐµÑĢÐµ": 3974,
  "ĠÐ½ÐµÐ¿ÑĢÐ°Ð²Ð¸Ð»ÑĮ": 3975,
  "ĠÑĨÐ¸ÐºÐ»Ñĭ": 3976,
  "ÑĦÑĦÐ¸ÑĨÐ¸": 3977,
  "ĠÑĨÐ¸ÑĦÑĢ": 3978,
  "ĠÐ¿ÑĢÐµÐ·ÐµÐ½ÑĤÐ°ÑĨÐ¸Ð¸": 3979,
  "ĠÐ¿ÑĢÐµÐ·ÐµÐ½ÑĤÐ°ÑĨÐ¸Ñİ": 3980,
  "ĠÑĦÐ¸Ð»ÑĮÐ¼": 3981,
  "way": 3982,
  "ĠÐ½Ð¾Ð¼ÐµÑĢ": 3983,
  "ĠÐ´ÑĢÐ°Ð¹": 3984,
  "ĠÑĢÐ°Ð·Ð½Ð¸ÑĨÑĭ": 3985,
  "ĠÐ¿Ð¾Ð¿ÑĢÐ¾Ð±Ð¾Ð²Ð°ÑĤÑĮ": 3986,
  "ĠÐ°ÐºÐºÐ°ÑĥÐ½ÑĤ": 3987,
  "ĠÐ²Ð¼ÐµÑģÑĤÐ¾": 3988,
  "ĠÐ²Ð¼ÐµÑģÑĤÐµ": 3989,
  "ĠÑĩÐµÑĤÐ²ÐµÑĢ": 3990,
  "ÍĵÍĵÍĵÍĵÍĵÍĵÍĵÍĵÍĵÍĵÍĵÍĵÍĵÍĵÍĵÍĵ": 3991,
  "ĠÐ¿Ð¾Ð´ÑģÐ²ÐµÑĤ": 3992,
  "ĠÑģÐ¸Ð¼Ð²Ð¾Ð»": 3993,
  "ĠÑģÐ¸Ð¼Ð²Ð¾Ð»Ð¾Ð²": 3994,
  "ĠÑĩÐµÐ»Ð¾Ð²ÐµÐº": 3995,
  "ĠÐ²ÐµÐ½ÑĤÐ¸Ð»ÑıÑĤÐ¾ÑĢ": 3996,
  "ĠÐ¼Ð¸Ð½Ð¸Ð¼ÑĥÐ¼": 3997,
  "ĠÐ½ÑĢÐ°Ð²Ð¸ÑĤÑģÑı": 3998,
  "ĠÐ¼Ð¾Ð´ÑĥÐ»ÑĮ": 3999,
  "ĠÐ¾ÑĢÐ³Ð°Ð½Ð¸Ð·": 4000,
  "projects": 4001,
  "ĠÐ²ÐµÑĢÐ¾ÑıÑĤÐ½Ð¾": 4002,
  "ĠÑĢÐµÐ·ÑĥÐ»ÑĮÑĤÐ°ÑĤ": 4003,
  "ĠÐ¼Ð°Ð¹Ð½ÐºÑĢÐ°ÑĦÑĤ": 4004,
  "ÐĵÐ¾ÑĤÐ¾Ð²Ð¾": 4005,
  "ĠÑĤÐ°Ð±Ð»Ð¸Ñĩ": 4006,
  "ĠÑģÐ¸Ð½ÑĤÐ°ÐºÑģÐ¸Ñģ": 4007,
  "ĠÐķÑģÐ»Ð¸": 4008,
  "ÐĴÐ¼ÐµÑģÑĤÐ¾": 4009,
  "ĠÐ°ÑĢÐ³ÑĥÐ¼ÐµÐ½ÑĤ": 4010,
  "ĠÑģÐ²ÐµÑĤÐ¾Ð´Ð¸Ð¾Ð´": 4011,
  "ĠÑģÐ¾Ð´ÐµÑĢÐ¶": 4012,
  "ÐļÐ°Ð¶ÐµÑĤÑģÑı": 4013,
  "\"]": 4014,
  ");\\": 4015,
  "/_": 4016,
  "07": 4017,
  "190": 4018,
  "26": 4019,
  "34": 4020,
  "300": 4021,
  "46": 4022,
  "51": 4023,
  "AA": 4024,
  "ID": 4025,
  "Num": 4026,
  "RI": 4027,
  "SE": 4028,
  "St": 4029,
  "\\'": 4030,
  "]:\\": 4031,
  "_%": 4032,
  "cd": 4033,
  "cha": 4034,
  "edu": 4035,
  "gb": 4036,
  "ng": 4037,
  "nm": 4038,
  "ool": 4039,
  "over": 4040,
  "port": 4041,
  "pdf": 4042,
  "rt": 4043,
  "use": 4044,
  "wiki": 4045,
  "ze": 4046,
  "zen": 4047,
  "ÍĿ": 4048,
  "Ð©": 4049,
  "ĉĠĠĠĠ": 4050,
  "Ġ|": 4051,
  "ĠÑĤÐ¾ÑĢ": 4052,
  "Ġof": 4053,
  "Ġstd": 4054,
  "Ġelem": 4055,
  "Ð°ÑĥÐ½": 4056,
  "ÑĤÑħ": 4057,
  "ÑĤÐ±Ð¾ÑĢ": 4058,
  "ÑĢÑı": 4059,
  "ÑĢÐ°ÑĤÑĮ": 4060,
  "ÑĢÐ°Ð¹": 4061,
  "ÑĢÐµÐ²": 4062,
  "ÑĢÐ°Ð±Ð°ÑĤ": 4063,
  "ÑģÐ¾Ð»ÑĮ": 4064,
  "Ð½Ð´Ðµ": 4065,
  "ÑĥÐ¶Ðµ": 4066,
  "ÑĥÐµÑĤÑģÑı": 4067,
  "Ð»Ð¾Ð½": 4068,
  "ÐºÐ½ÑĥÑĤÑĮ": 4069,
  "ĠÐ¿Ð¾Ð¹": 4070,
  "ĠÐ¿Ð°Ñı": 4071,
  "ĠÐ¿ÑıÑĤÐ¸": 4072,
  "ÑıÐ»Ð¸": 4073,
  "ÑıÐ½Ð¸": 4074,
  "ÑĭÑĩ": 4075,
  "ÑĩÐµÐ½ÑĮ": 4076,
  "ÑĩÐ°ÑģÑĤ": 4077,
  "ÑĩÐ°Ð½Ð¸Ñİ": 4078,
  "ĠÐ²Ð²": 4079,
  "ĠÐ²Ð¾Ð»": 4080,
  "ĠÐ²Ð¸ÑĦ": 4081,
  "ĠÐ²ÑģÑĤÑĢÐ¾": 4082,
  "ĠÐ²Ð´ÑĢÑĥÐ³": 4083,
  "ĠÑģÐ¸Ð»ÑĮ": 4084,
  "ĠÑģÑĢÐ°Ð²Ð½Ð¸Ð²": 4085,
  "Ð´ÐµÐ¹": 4086,
  "Ġ'@": 4087,
  "Ð¼Ð¾": 4088,
  "Ð¼Ð»": 4089,
  "Ð¼ÐµÑĤ": 4090,
  "ĠÐºÐ½Ð¸": 4091,
  "ĠÑĤÑħ": 4092,
  "ĠÑĤÐµÑĤÑĢ": 4093,
  "Ð²Ð¾Ð»": 4094,
  "ÐµÑĤÐ¸": 4095,
  "ÐµÑĤÐ¸Ðº": 4096,
  "ÐµÑĤÐºÑĥ": 4097,
  "ĠÐ¸Ð´Ð¸": 4098,
  "ĠÐ¾Ð¶": 4099,
  "ĠÐ´Ð¾Ð³": 4100,
  "ĠÐ´Ð°ÑĤÑĮ": 4101,
  "ĠÐ´Ð°ÑĤ": 4102,
  "ĠÐ´ÐµÐ´": 4103,
  "ĠÐ´Ð¸ÑģÑĤ": 4104,
  "ĠÐ´ÐµÐ»Ð¸ÑĤÑĮ": 4105,
  "ĠÐ¼Ð¾ÑĢ": 4106,
  "ÑĪÐ°Ñı": 4107,
  "Ð°Ð»ÐºÑĥ": 4108,
  "ĠÐ¿ÑĢÐµÐº": 4109,
  "Ð¾Ð²Ð¾": 4110,
  "Ð¿ÑĢÐ¾": 4111,
  "Ð¿Ð¾ÑĢÑĤ": 4112,
  "ÑħÐ¸": 4113,
  "Ð¾Ð»ÑĩÐ°Ð½Ð¸Ñİ": 4114,
  "ÐĲÐĲ": 4115,
  "ĠÐ±Ð¸": 4116,
  "ĠÐ±Ð¸Ð»": 4117,
  "ĠÐ±Ð°ÑĢ": 4118,
  "ĠÐ±Ð¾ÑĤÐ°": 4119,
  "Ð¾Ð¼Ð¸": 4120,
  "ĠÐ½ÐµÑģ": 4121,
  "ĠÐ½ÐµÐ¾Ð±": 4122,
  "Ð°Ð¼ÐµÐ½": 4123,
  "Ð°Ð¼ÐµÑĤÑĢ": 4124,
  "ine": 4125,
  "ĠÑĢÐµÐ¼": 4126,
  "ĠÑĢÐµÐ±": 4127,
  "ĠÑĢÐ°Ð½Ð´": 4128,
  "Ð°Ð½Ð³": 4129,
  "Ð°Ð½ÐµÐµ": 4130,
  "ĠÐ½Ð°ÑĥÑĩ": 4131,
  "Ð¾Ð³ÑĢÐ°Ð¼Ð¼": 4132,
  "Ð¸Ð½ÑĤÐµÑĢ": 4133,
  "ĠÑĥÑĤÑĢ": 4134,
  "Ð·ÐµÑĢ": 4135,
  "ĠÐµÑģÑĤ": 4136,
  "ÐµÐ¼Ñĭ": 4137,
  "Ð¸ÑĤÐ°": 4138,
  "Ð¸ÑĤÐµÐº": 4139,
  "Ð¾Ð¶Ð´": 4140,
  "Ð¾Ð¶ÐµÐ½": 4141,
  "ÐĴÐ¸Ð½": 4142,
  "ÐĴÑģÑı": 4143,
  "Ð¶Ð°Ð¹": 4144,
  "Ð¶Ð¸Ð¼": 4145,
  "ÐºÐ¸Ð¼Ð¸": 4146,
  "Ð°Ð´Ð¸": 4147,
  "ÐļÐ°ÑĢ": 4148,
  "ÐļÑĥÑĪ": 4149,
  "ÐļÑĢÑĥÑĤ": 4150,
  "ÐŀÐºÐµ": 4151,
  "ÐŀÑĪÐ¸Ð±": 4152,
  "ĠÐºÐ°ÐºÐ¸Ñħ": 4153,
  "ÑĨÐµÐ¿": 4154,
  "Ð°ÑĢÐ¸": 4155,
  "ĠÐ³Ñĥ": 4156,
  "ĠÐ³ÐµÐ¹": 4157,
  "ĠÐ¿Ð¾ÐµÐ´": 4158,
  "ÐºÐ°ÐµÑĪÑĮ": 4159,
  "Ð¡Ð¼Ð¾ÑĤÑĢ": 4160,
  "Ð¡Ð½Ð°ÑĩÐ°Ð»Ð°": 4161,
  "ÑĦÑĤ": 4162,
  "ÑĦÐ°Ð¹": 4163,
  "ÐľÐ¾": 4164,
  "ĠÐµÑģÐ¿": 4165,
  "ĠÐ»ÐµÐ²": 4166,
  "ÐµÐ½Ð¸Ñİ": 4167,
  "tpro": 4168,
  "ĠÐ¾ÑĤÑĤÑĥÐ´Ð°": 4169,
  "ĠÑĤÐ°ÐºÑĥÑİ": 4170,
  "ÑĢÐ¸ÑģÑĤ": 4171,
  "ÑĢÐ¸Ð¶": 4172,
  "ĠÐ²ÑģÐµÐ¼Ñĥ": 4173,
  "ĠÑĦÑĢ": 4174,
  "ĠÑĦÑĮÑİ": 4175,
  "ĠÐ¶Ð´Ñĥ": 4176,
  "ĠÐ¶Ð¸Ð·": 4177,
  "Ð£Ñħ": 4178,
  "ĠÐ²ÑĭÐ±Ð¾ÑĢ": 4179,
  "ĠÐ²ÑĭÑĩÐ¸Ñģ": 4180,
  "Ð´ÐµÐ»Ð¸ÑĤÑĮ": 4181,
  "ĠÐ¾Ð±Ðµ": 4182,
  "ĠÐ¾Ð±ÑĢÐ°Ð·": 4183,
  "ĠÐ¿ÐµÑĢÐµÑĥ": 4184,
  "ĠÐ¿ÐµÑĢÐµÑģÑĤ": 4185,
  "ĠÐ¿Ð¾Ð´ÑĤ": 4186,
  "ĠÐ¿Ð¾Ð´ÑģÐº": 4187,
  "ĠÑħÑĤ": 4188,
  "ĠÑħÐ·": 4189,
  "ĠÑħÑĢÐ°Ð½": 4190,
  "Ð°Ð»ÑĮÐ½ÑĥÑİ": 4191,
  "ÐµÑĪÑĮÑģÑı": 4192,
  "ÑĢÐ°Ñĩ": 4193,
  "Ð§ÐµÑĢ": 4194,
  "ĠÐ¸Ð·Ð¼": 4195,
  "ĠÐ¸Ð·Ð²ÐµÑģÑĤ": 4196,
  "ĠÑĢÐ°Ð·Ð´ÐµÐ»": 4197,
  "ĠÑĢÐ°Ð·Ð²Ðµ": 4198,
  "ĠÑĢÐ°Ð·Ð±Ð¸ÑĢ": 4199,
  "Ð»Ð¾Ñī": 4200,
  "ĠÑģÐºÐ¾Ð¿": 4201,
  "ĠÑģÐºÐ»Ð°Ð´": 4202,
  "ÐµÐ²Ð°Ñı": 4203,
  "ĠÑĪÑĤ": 4204,
  "ÐĳÐµÐ»": 4205,
  "ÑħÐ¾Ð´ÑıÑĤ": 4206,
  "ĠÐ¿Ð¾Ð½ÑĢÐ°Ð²": 4207,
  "ata": 4208,
  "Ð¥Ð°ÑħÐ°": 4209,
  "Ð°Ð³Ð¾Ð²": 4210,
  "ĠÑģÐ¿Ð¸ÑĢ": 4211,
  "ĠÐ²Ð¾ÐµÐ½": 4212,
  "ĠÐ´ÐµÐ»Ð°": 4213,
  "ĠÐ´ÐµÐ»Ðµ": 4214,
  "ÐĿÐ°ÑĪÑĳÐ»": 4215,
  "Ð¸Ð±ÐµÑĢ": 4216,
  "ĠÑģÐ°Ð¼ÑĭÐ¹": 4217,
  "ĠÐºÐ¾Ð½ÑģÐ¾Ð»ÑĮ": 4218,
  "ĠÐ½Ð°Ð¿Ð¸ÑĪÐ¸": 4219,
  "ÑįÑĢ": 4220,
  "ÑĢÐ¾ÑĪ": 4221,
  "ĠÐ¿Ð¾ÐºÐ°Ð·": 4222,
  "ĠÐ¿Ð¾ÐºÐ°Ð·Ð°ÑĤÑĮ": 4223,
  "ÑĤÑĥÑĢ": 4224,
  "ĠÐºÐ¾Ð¼Ð½": 4225,
  "arch": 4226,
  "set": 4227,
  "format": 4228,
  "ĠÐºÐ¾ÑĤÐ¾ÑĢÐ¾Ð¼": 4229,
  "ÐºÐ»ÑİÑĩÐ¸": 4230,
  "ÐµÐºÑĤÐ¸Ð²": 4231,
  "ĠÐ¿Ð»Ð°Ð½Ð¸": 4232,
  "Ġ50": 4233,
  "ĠÐ¿ÑĢÐ¾Ð²Ð¾Ð´Ð°": 4234,
  "ĠÐ¿Ð°ÑĢÐ°": 4235,
  "ĠÑĩÐ¸ÑģÐµÐ»": 4236,
  "ÐµÐ»Ð¸Ñĩ": 4237,
  "ices": 4238,
  "ĠÐ¿ÐµÑĢÐ²ÑĥÑİ": 4239,
  "ĠÐºÐ¾ÑĢÐ¾ÑĤ": 4240,
  "ÐŁÑĢÐ¸ÐºÐ¾Ð»": 4241,
  "raft": 4242,
  "Ð°ÐµÑĪÑĮÑģÑı": 4243,
  "ĠÑĤÑĢÐµÐ½Ð¸ÑĢÐ¾Ð²": 4244,
  "ĠÐ´ÑĥÐ¼Ð°ÐµÑĪÑĮ": 4245,
  "ĠÑĥÐ´Ð°ÑĢ": 4246,
  "Ð¸ÑĪÑĮÑģÑı": 4247,
  "ĠÐ¿Ð¾Ð¿ÑĥÐ»ÑıÑĢ": 4248,
  "ish": 4249,
  "ĠÐ²ÐµÑĢÑħ": 4250,
  "ĠÐºÐ°ÑĢÑĤÑĥ": 4251,
  "ĠÐ¼Ð¾Ð¸": 4252,
  "Ð¾Ð±ÑĢÐ°Ð·": 4253,
  "Ð¾Ð±ÑĢÐ°Ð»ÑģÑı": 4254,
  "ĠÐ¿ÑĢÐµÐ´Ñĭ": 4255,
  "ĠÐ¼Ð°ÑĤÐµÑĢÐ¸Ð½": 4256,
  "ĠÐ¿ÑĢÐ¾Ð³ÑĢÐ°Ð¼Ð¼Ñĥ": 4257,
  "ĠÐ¢Ð°Ðº": 4258,
  "ĠÐ½ÐµÐ¿ÑĢÐ¸": 4259,
  "ĠÑħÐ¾ÑĩÐµÑĤÑģÑı": 4260,
  "ĠÐĺÐĺ": 4261,
  "Ð¸ÑĢÐ¾Ð²Ð°Ð»": 4262,
  "Ð¸ÑĩÐµÑģÐºÐ¸Ð¹": 4263,
  "Ð¸ÑĩÐµÑģÐºÐ¸Ðµ": 4264,
  "ami": 4265,
  "mention": 4266,
  "ash": 4267,
  "Ġcv": 4268,
  "ĠÐ¾Ð±ÑĬÐµÐ´Ð¸Ð½": 4269,
  "ĠÑĥÐ¼Ð¾Ð»ÑĩÐ°Ð½Ð¸Ñİ": 4270,
  "spa": 4271,
  "ĠÐ¿ÑĢÐ¸Ð´ÑĳÑĤÑģÑı": 4272,
  "ĠÑĤÐµÐ¼Ð°": 4273,
  "ill": 4274,
  "ĠÑģÑĤÐ¾Ð»Ð°": 4275,
  "ĠÑģÐ¼ÑĭÑģÐ»": 4276,
  "ÐŁÐ¾ÑģÐ»Ðµ": 4277,
  "ĠÐ¸Ð´ÐµÐ¸": 4278,
  "ĠÑİÐ·": 4279,
  "ĠÐ»ÑİÐ±Ð¾Ð¼": 4280,
  "ĠÐ¼ÐµÑĤÑĢÐ¾": 4281,
  "ĠÐ¿Ð»Ð°Ð½ÐµÑĤÐ°ÑĢ": 4282,
  "Ġpile": 4283,
  "ĠÐ¿Ð¸ÑĪÐµÑĤ": 4284,
  "ĠÑģÐ¾Ð·Ð´Ð°Ð²Ð°ÑĤÑĮ": 4285,
  "ĠÐ¾ÑĪÐ¸Ð±ÐºÐ¸": 4286,
  "ĠÐ±ÐµÑģÐ¿Ð»Ð°ÑĤ": 4287,
  "ĠÑĢÐ¾Ð±Ð¾ÑĤ": 4288,
  "ĠÐ¼Ð°ÑģÑģÐ¸Ð²Ð°": 4289,
  "ĠÑģÐ¸ÑģÑĤÐµÐ¼Ñĥ": 4290,
  "ĠÐºÑĥÑĢÑĮ": 4291,
  "ĠÐ·Ð°ÑĢÐ°Ð±Ð¾ÑĤ": 4292,
  "ĠÐ¿Ð¾Ð»ÑĮÐ·Ð¾Ð²Ð°ÑĤÑĮÑģÑı": 4293,
  "ĠÐ¿ÐµÑĩÐ°ÑĤÐ°ÐµÑĤ": 4294,
  "ĠÑĥÑģÑĤÐ°Ð½Ð¾Ð²Ð¸ÑĤÑĮ": 4295,
  "ĠÑĥÑģÑĤÐ°Ð½Ð¾Ð²Ð»ÐµÐ½": 4296,
  "ĠÐ°Ð´Ð°Ð¿": 4297,
  "ĠÐºÐ°ÑĢÑĤÐ¸Ð½ÐºÐ¸": 4298,
  "ĠÐºÐ°ÑĢÑĤÐ¸Ð½ÐºÐ°": 4299,
  "ĠÐ¿ÐµÑĢÐµÐ¼ÐµÐ½Ð½ÑĭÐµ": 4300,
  "ĠFalse": 4301,
  "ĠÐ¼Ð°ÑĤÑĢÐ¸ÑĨ": 4302,
  "ĠÐ°Ð¿Ð¿": 4303,
  "ĠÐ±Ð»Ð¸Ð¶Ð°Ð¹": 4304,
  "ĠÐµÐ´Ð¸Ð½Ð¸": 4305,
  "ĠÐµÐ´Ð¸Ð½ÑģÑĤÐ²": 4306,
  "Ð¥Ð¾ÑĩÐµÑĪÑĮ": 4307,
  "ĠÐ¼Ð°Ð»ÐµÐ½ÑĮÐºÐ¸Ð¹": 4308,
  "Ð¢Ð¾ÑĩÐ½ÐµÐµ": 4309,
  "ĠÑıÐ·ÑĭÐº": 4310,
  "ĠÑĢÐ°ÑģÐ¿Ð¾Ð·Ð½": 4311,
  "ĠÐ½Ð°Ð·Ð²Ð°Ð½Ð¸Ðµ": 4312,
  "ĠÐ²ÑĭÑĪÐµÐ»": 4313,
  "ĠÐ¿ÐµÑĢÐµÐ¿Ð¸Ñģ": 4314,
  "ĠÐ¿Ð¾Ð¼ÐµÐ½ÑıÑĤÑĮ": 4315,
  "ĠÐ¿Ð¾ÐºÐ°Ð·ÑĭÐ²Ð°ÐµÑĤ": 4316,
  "ĠÐŃÑĤÐ¾": 4317,
  "ĠÐºÐ°Ð¼ÐµÑĢÑĭ": 4318,
  "ĠÑģÐ±ÑĢÐ¾Ñģ": 4319,
  "ĠÑĢÐ°Ð·Ð½Ð¸ÑĨÐ°": 4320,
  "ĠðŁĺ": 4321,
  "ĠÑģÑĤÐ°Ð½ÐµÑĤ": 4322,
  "ĠÐ¼Ð°Ð½Ð¸Ð¿ÑĥÐ»ÑıÑĤÐ¾ÑĢ": 4323,
  "ĠÐ²ÐµÐºÑĤÐ¾ÑĢ": 4324,
  "ÐŁÑĢÐ¸Ð½ÐµÑģÐ¸": 4325,
  "ĠÐ¼Ð¸ÐºÑĪ": 4326,
  "ĠÐ°Ð¼Ð´": 4327,
  "ĠÐ¿ÐµÑĢÐµÑħÐ¾Ð´": 4328,
  "ĠÐ¿ÑĢÐ¾ÑĦÐ¸Ð»": 4329,
  "ĠÐ·Ð°ÑħÐ¾Ð´": 4330,
  "ĠÐ³Ð¸ÑĤÑħÐ°Ð±": 4331,
  "ÐŁÑĢÐ¾Ð²ÐµÑĢÑĮ": 4332,
  "ÌıÌıÌıÌıÌıÌıÌıÌıÌıÌıÌıÌıÌıÌıÌıÌı": 4333,
  "ĠÐ²ÑĭÐ¿Ð¾Ð»Ð½ÐµÐ½Ð¸Ñı": 4334,
  "ĠÑįÐ½ÐµÑĢÐ³Ð¸Ñı": 4335,
  "ĠÐ±ÑĥÐºÐ²": 4336,
  "ĠÑĦÐ¾ÑĢÐ¼ÑĥÐ»Ð°": 4337,
  "ĠÐ¿Ð¾Ð»ÑĮÐ·Ð¾Ð²Ð°ÑĤ": 4338,
  "ĠÑĤÐµÐ¾ÑĢÐ¸Ð¸": 4339,
  "feature": 4340,
  "ÐŁÑĢÐ¸Ð´ÑĥÐ¼Ð°Ð¹": 4341,
  "ĠÐ·Ð°ÐºÐ¾Ð½ÑĩÐ¸Ð»": 4342,
  "ĠÑĥÑģÐºÐ¾ÑĢÐµÐ½Ð¸Ðµ": 4343,
  "Ð½Ð¸Ð·Ñĥ": 4344,
  "ĠÐ³ÑĢÑĥÐ¿Ð¿": 4345,
  "ĠÐ¿Ð¾Ð´ÑħÐ¾Ð´ÑıÑī": 4346,
  "ĠÐ±Ð¸Ð±Ð»Ð¸Ð¾ÑĤÐµÐº": 4347,
  "ĠÐ¿Ð¾Ð»Ð¾Ð²Ð¸Ð½Ñĥ": 4348,
  "ĠÐ²Ð¾Ð·Ð²ÑĢÐ°Ñī": 4349,
  "ĠÐºÐ¸Ð½Ð¾ÑĤÐµÐ°ÑĤ": 4350,
  "ÐĿÐ¾ÑĢÐ¼Ð°Ð»ÑĮÐ½Ð¾": 4351,
  "ĠÐ²ÑģÑĤÑĢÐµÑĩ": 4352,
  "Ð¡Ð´ÐµÐ»Ð°Ð¹": 4353,
  "ĠÑĦÐ¾ÑĢÑĥÐ¼": 4354,
  "Ð»Ð°Ð³Ð¾Ð´Ð°ÑĢÑİ": 4355,
  "ĠÐ´Ð¾Ð¿Ð¾Ð»Ð½Ð¸ÑĤÐµÐ»ÑĮ": 4356,
  "ĠJava": 4357,
  "ĠÑģÑĤÐ°Ð±Ð¸Ð»Ð¸": 4358,
  "ĠÐ°Ð¹ÑĦÐ¾Ð½": 4359,
  "ÐĺÐ½ÑĤÐµÑĢÐµÑģÐ½Ð¾": 4360,
  "ĉĠĠĠĠĠĠĠĠĠĠĠĠĠĠĠĠĠĠĠĠĠĠĠĠĠĠĠĠĠĠĠ": 4361,
  "computers": 4362,
  "ĠÐ°Ð»ÑĮÐ±Ð¾Ð¼": 4363,
  "ĠÐ¼Ð¸Ð»Ð»Ð¸": 4364,
  "ĠÐ²Ð¸ÑĦÐ¸": 4365,
  "ĠÑĢÐ°Ð½Ð´Ð¾Ð¼": 4366,
  "->": 4367,
  "02": 4368,
  "110": 4369,
  "115": 4370,
  "54": 4371,
  "500": 4372,
  "650": 4373,
  "96": 4374,
  "98": 4375,
  "CV": 4376,
  "De": 4377,
  "Ma": 4378,
  "RO": 4379,
  "True": 4380,
  "UT": 4381,
  "]\"": 4382,
  "are": 4383,
  "bl": 4384,
  "blin": 4385,
  "bile": 4386,
  "cu": 4387,
  "ef": 4388,
  "ech": 4389,
  "find": 4390,
  "gr": 4391,
  "ire": 4392,
  "ian": 4393,
  "ies": 4394,
  "imp": 4395,
  "ki": 4396,
  "kick": 4397,
  "mi": 4398,
  "mon": 4399,
  "nl": 4400,
  "nif": 4401,
  "pu": 4402,
  "part": 4403,
  "ring": 4404,
  "si": 4405,
  "su": 4406,
  "spe": 4407,
  "ux": 4408,
  "vd": 4409,
  "ï¸": 4410,
  "ĠQ": 4411,
  "Ġar": 4412,
  "Ġĉĉ": 4413,
  "Ġev": 4414,
  "Ġthe": 4415,
  "Ġway": 4416,
  "Ð¾ÐµÐ´Ð¸Ð½": 4417,
  "Ð°ÑĨ": 4418,
  "ÐµÑİÑģÑĮ": 4419,
  "ÑĤÐ¾Ð¹": 4420,
  "ÑĢÐ°Ð½Ð¸": 4421,
  "ÑĢÐ¸Ð¼ÐµÑĢ": 4422,
  "ÑĢÑĳÑħ": 4423,
  "ÑģÑĤÑĮ": 4424,
  "ÑģÐµÑĢ": 4425,
  "ÑģÐ¾Ð½": 4426,
  "ÑģÐºÐ°Ñı": 4427,
  "Ð½Ð°Ðº": 4428,
  "ÑĮÑı": 4429,
  "ÐºÐ¾ÑģÑĤÑĮ": 4430,
  "ĠÐ¿ÑĥÑĪ": 4431,
  "ĠÐ¿Ð¸ÐºÑģ": 4432,
  "ĠÐ¿Ð¾ÑģÑĤÐ¾ÑıÐ½": 4433,
  "ÑıÑĢ": 4434,
  "ÑĭÐ¶": 4435,
  "ÑĭÐ¼Ð¸": 4436,
  "ĠÐ½Ð¾Ð¶": 4437,
  "ĠÐ½Ð¾Ð»ÑĮ": 4438,
  "ĠÐ½Ð°Ð·ÑĭÐ²": 4439,
  "ÑĩÐ¸": 4440,
  "ÑĩÑĤÐ¾": 4441,
  "ÑĩÐµÑĢ": 4442,
  "ĠÐ²Ðº": 4443,
  "ĠÐ²Ð¾Ðº": 4444,
  "ĠÐ²Ð½Ð¸Ð¼": 4445,
  "ĠÑģÐ¸Ñħ": 4446,
  "ĠÑģÑĬ": 4447,
  "ĠÑģÐ¸Ð³Ð½": 4448,
  "Ð´Ð¾ÑĢ": 4449,
  "ĠÐºÐ»Ð¸": 4450,
  "ĠÐºÐ¸Ð´Ð°Ð»": 4451,
  "ĠÐºÐ°Ð·Ð°Ð»Ð¾ÑģÑĮ": 4452,
  "ĠÐºÐ¸Ð±ÐµÑĢ": 4453,
  "ĠÑĤÐ¾Ð½": 4454,
  "ĠÑĤÐ°Ð¹": 4455,
  "ĠÑĤÐ¾Ð¿": 4456,
  "Ð²Ð°ÐµÑĤ": 4457,
  "ÐĿÐ¸ÑĦÐ¸Ð³Ð°": 4458,
  "ÐµÑĤÐ¾Ð¼": 4459,
  "ĠÐ¸Ð±Ð¾": 4460,
  "ÐµÑĢÐ±Ð¾Ð»": 4461,
  "Ð°ÐºÐ°": 4462,
  "ĠÐ´Ð°Ð»": 4463,
  "ĠÐ´Ð¸Ð½": 4464,
  "ĠÐ¼ÐµÑĪ": 4465,
  "ĠÐ¼Ð¸Ð³": 4466,
  "ĠÐ¼ÑıÐ³": 4467,
  "ĠÐ¼ÑĥÐ·Ñĭ": 4468,
  "ÐµÐ½Ð½Ð¾Ð¹": 4469,
  "ÑĪÐ»Ð¸": 4470,
  "ÑĪÐ¸Ðµ": 4471,
  "ĠÐ¿ÑĢÐ¸Ð³": 4472,
  "ĠÐ¿ÑĢÐ¸Ð·": 4473,
  "Ð¿ÑĥÑĤ": 4474,
  "ÐĲÐ»": 4475,
  "ÐĲÐ´": 4476,
  "ÐĲÑģÑĮ": 4477,
  "ĠÑĩÐ¸ÑģÑĤ": 4478,
  "ĠÐ·ÐµÐ½": 4479,
  "ĠÐ·Ð°Ð¶": 4480,
  "ĠÐ·ÑĥÐ±": 4481,
  "ĠÐ·Ð°Ð¹Ð¼": 4482,
  "ins": 4483,
  "Ð°Ð½ÑĤÐ¸": 4484,
  "ĠÐ½Ð°ÑģÑĤ": 4485,
  "ĠÐ½Ð°ÑģÑĤÑĢÐ¾": 4486,
  "Ð¾Ð³Ð»Ð°Ñģ": 4487,
  "ÐµÐ»Ðµ": 4488,
  "ĠÑĥÑĢ": 4489,
  "ĠÑĥÐ±ÑĢÐ°ÑĤÑĮ": 4490,
  "ĠÐµÑħ": 4491,
  "ÐµÐ¼Ð»Ð¸": 4492,
  "Ð¢Ðŀ": 4493,
  "Ð¾Ð½Ñĭ": 4494,
  "ÐŁÐ¾Ð³": 4495,
  "ÐŁÐ°Ð¿": 4496,
  "ĠÑįÐ½Ð¸": 4497,
  "Ð¾Ð±Ð¾Ð´": 4498,
  "Ð¾Ð±ÐµÐ½Ð½Ð¾": 4499,
  "Ð°ÑĤÐ¸ÑĤÑĮ": 4500,
  "Ð°ÑĤÐ¸ÐºÐµ": 4501,
  "ÐĺÑĤÐ°Ðº": 4502,
  "Ð°Ð´Ð°": 4503,
  "ÐĶÐĲ": 4504,
  "ÐļÐ¸Ð½ÑĮ": 4505,
  "ÐŀÐŁ": 4506,
  "ĠÐ³Ð°Ð¹": 4507,
  "ĠÐ³Ð¾ÑģÑĤ": 4508,
  "ĠÐ³ÐµÐ¾Ð¼ÐµÑĤÑĢÐ¸": 4509,
  "ĠÐ¿Ð¾ÑģÑĤÑĢÐ¾Ð¸ÑĤÑĮ": 4510,
  "ĠÐ¿Ð¾Ð¸Ð³ÑĢ": 4511,
  "Ð¡Ð¢": 4512,
  "Ð¡Ð¾Ð±": 4513,
  "Ð¡Ð»Ð¾Ð¶": 4514,
  "ÐµÐ¹Ð´": 4515,
  "Ð°Ð¹Ð´Ð¸": 4516,
  "ÑĦÐ¸Ðº": 4517,
  "line": 4518,
  "ĠÐ»ÐµÐ½ÑĮ": 4519,
  "ÐµÐ½Ð¸Ð»Ð¸": 4520,
  "ĠÐ¾ÑĤÐ½Ð¾Ñģ": 4521,
  "ĠÐ¾ÑĤÐ·ÑĭÐ²": 4522,
  "ĠÑģÑĤÑĢÑĥ": 4523,
  "ĠÑģÑĤÐ¾Ð»ÑĮÐºÐ¾": 4524,
  "ĠÑĤÐ°ÐºÐ¾Ð¼": 4525,
  "ÑĢÐ¸ÑĩÐµÑģ": 4526,
  "Ġ17": 4527,
  "Ġ18": 4528,
  "ÐµÐ³Ð°": 4529,
  "ÐºÐ¾ÑģÑĤÐ¸": 4530,
  "Ð¾ÑĩÐ½ÑĭÐ¹": 4531,
  "ĠÐ²ÑĭÐº": 4532,
  "ĠÐ²ÑĭÐ´": 4533,
  "ĠÐ²ÑĭÐ±ÑĢ": 4534,
  "ÐķÐł": 4535,
  "ĠÐ¾Ð±Ð»": 4536,
  "Ð°Ð»ÑĮÐ½Ð¾Ð¼": 4537,
  "ÑĢÐ°ÑģÑĤ": 4538,
  "Ð§Ð¸Ñģ": 4539,
  "Ð°Ð½Ð¸Ð¹": 4540,
  "sta": 4541,
  "leq": 4542,
  "ĠÑģÐºÐ¾Ð±": 4543,
  "ÑĭÐ²Ð°ÑİÑĤÑģÑı": 4544,
  "ance": 4545,
  "Ð°ÑĩÐ¸": 4546,
  "Ð¸ÑĪÐ½Ð¾": 4547,
  "ÐµÑĩÑĮ": 4548,
  "ÐµÐ½ÑĮÑĪ": 4549,
  "ÑĥÑģÐº": 4550,
  "hack": 4551,
  "ÐĹÐ²": 4552,
  "ÐĹÐ°ÑĢ": 4553,
  "ÐĳÐ¾Ð»ÑĮÑĪ": 4554,
  "ÐĳÐ¾Ð»ÑĮÑĪÐµ": 4555,
  "ĠÐ¿Ð¾Ð½Ð°Ð´": 4556,
  "ĠÐ¾Ð½Ð»Ð°Ð¹Ð½": 4557,
  "ĠÐ¸Ð½Ð¶ÐµÐ½": 4558,
  "ĠÐ¿Ð¾ÑģÐ¼Ð¾ÑĤÑĢÐ¸": 4559,
  "ĠÐ´ÐµÐ»Ð°Ñİ": 4560,
  "ĠÐ´ÐµÐ»ÐµÐ½Ð¸Ðµ": 4561,
  "ĠÐ´ÐµÐ»Ð°Ð»Ð¸": 4562,
  "ÐĿÐ°ÑĪÐµÐ»": 4563,
  "âĢ¦": 4564,
  "ÑĢÐ°Ð½Ð¶": 4565,
  "ĠÐ´Ð²ÑĥÐ¼Ñı": 4566,
  "ĠÑģÐ°Ð¼Ð¾Ð»": 4567,
  "ÐĵÐ¾": 4568,
  "ÑģÐºÐ¾Ð¹": 4569,
  "ÑģÐºÐ¾Ð¼Ñĥ": 4570,
  "Ð¸Ð³ÑĢÐ°Ð»": 4571,
  "ĠÐºÐ¾Ð¼Ð¼ÐµÐ½ÑĤ": 4572,
  "Ġ40": 4573,
  "ĠÐ¿Ð¾ÑĤÑĭ": 4574,
  "Ð¸Ð·Ñĥ": 4575,
  "ĠÑģÐ´ÐµÐ»Ð°Ñİ": 4576,
  "ĠÐ¾Ð¿Ð¸Ñģ": 4577,
  "ĠÐ¾Ð¿ÑĤÐ¸Ð¼": 4578,
  "chn": 4579,
  "ĠĠĠĠĠĠĠĠĠĠĠĠĠĠĠĠĠĠĠ": 4580,
  "dia": 4581,
  "usp": 4582,
  "ĠÐ½Ð¾Ð²Ð¾Ð¼": 4583,
  "ĠÐ½Ð¾Ð²Ð°Ñı": 4584,
  "ĠÐ½Ð¾Ð²ÑĥÑİ": 4585,
  "Ð¿Ð»ÐµÐ¹": 4586,
  "olis": 4587,
  "ĠÐ¿Ð°ÑĢÑĭ": 4588,
  "ical": 4589,
  "ĠÐ¿ÐµÑĢÐ²ÑĭÐµ": 4590,
  "ĠÐºÐ¾ÑĢÐ¾ÑĩÐµ": 4591,
  "ĠÐ¿Ð¾Ð»ÑĥÑĩÑĪÐµ": 4592,
  "begin": 4593,
  "ĠÐ¿Ð¾Ð¿ÑĭÑĤ": 4594,
  "ĠÑĢÐµÑĪÐµÐ½Ð¸Ñı": 4595,
  "ĠÐĲÐ¹": 4596,
  "ĠÐ²Ð¸Ð´Ñĥ": 4597,
  "ĠÐ²Ð¸Ð´Ð¸Ð¼Ð¾": 4598,
  "oot": 4599,
  "('+'": 4600,
  "ĠÐ¼Ð¾ÐµÐ¹": 4601,
  "ĠÐ³Ð¾Ð²Ð¾ÑĢÑİ": 4602,
  "ĠÐ³Ð¾Ð²Ð¾ÑĢÐ¸Ð»Ð¸": 4603,
  "ĠÐŀÐ½": 4604,
  "ĠÐŀÑĤÐ±Ð¾ÑĢ": 4605,
  "ĠÐ·Ð°Ð±ÑĥÐ´ÑĮ": 4606,
  "ÐŀÑĤÐ¿ÑĢÐ°Ð²": 4607,
  "ĠÐ¿ÑĢÐ¾Ð³ÑĢÐ°Ð¼Ð¼Ñĭ": 4608,
  "ĠÐ¿Ð¾ÑĢÑĤÑĭ": 4609,
  "149": 4610,
  "ĠÐºÐ°Ð¶Ð´Ð¾Ð¼": 4611,
  "ĠÐ½Ð¾ÑĥÑĤÐ±ÑĥÐº": 4612,
  "ĠÐ°ÐºÑĤÑĥ": 4613,
  "ĠÑħÐ¾ÑĩÐµÑĤ": 4614,
  "opolis": 4615,
  "enetic": 4616,
  "ĠÑģÐ²Ð¾ÐµÐ³Ð¾": 4617,
  "Ð¨Ð¾": 4618,
  "ĠÑĦÐ¾ÑĢÐ¼Ð°ÑĤ": 4619,
  "ĠÐ²Ð°ÑĢÐ¸Ð°Ð½ÑĤÐ°": 4620,
  "Ġ<<": 4621,
  "ÑģÑĤÐ°Ð½Ð¾Ð²Ð¸ÑĤÑĮ": 4622,
  "ĠÑģÑĤÐ¾ÑıÑĤ": 4623,
  "]))": 4624,
  "])<=": 4625,
  "ÑıÑĤÐ¸Ðµ": 4626,
  "ĠÑģÐ¾Ð±Ð¸ÑĢÐ°ÑĤÑĮ": 4627,
  "ĠÐ¾ÑģÑĤÐ°Ð»ÑĮÐ½ÑĭÐµ": 4628,
  "ĠÐ¾ÑģÑĤÐ°Ð»Ð¾ÑģÑĮ": 4629,
  "ĠÑģÑĩÐ¸ÑĤÐ°ÐµÑĤ": 4630,
  "ÐľÐ°Ð¼Ð°Ð½": 4631,
  "ÐŁÐ¾ÑģÐ»ÐµÐ´": 4632,
  "ĠÑĪÑĤÑĥÐº": 4633,
  "ĠÐ»ÑİÐ±Ð¾Ð¹": 4634,
  "Ġ[]\\": 4635,
  "media": 4636,
  "ĠÑģÑĤÐ°ÑĢÑĭÐ¹": 4637,
  "ĠÐ¿Ð¾ÑģÐ»ÐµÐ´Ð½Ð¸Ð¹": 4638,
  "goto": 4639,
  "ĠÐ²ÑĭÐ²Ð¾Ð´Ð¸ÑĤÑĮ": 4640,
  "ĠÐºÐ½Ð¾Ð¿ÐºÐ°": 4641,
  "ĠÐ¾ÑĤÐºÑĢÑĭÑĤ": 4642,
  "ĠÑĥÐ´Ð¾Ð±Ð½ÐµÐµ": 4643,
  "ĠÐºÑĢÐ°ÑģÐ¸Ð²ÑĭÐ¹": 4644,
  "ĠIn": 4645,
  "ĠÐ»Ð¾Ð³Ð¸Ð½": 4646,
  "ĠÐ¿ÑĢÐ¾ÐµÐºÑĤÐ°": 4647,
  "ĠÑģÐ»ÑĥÑĩÐ°Ð¸": 4648,
  "]ðŁĺ": 4649,
  "ĠÐ·Ð°ÑĢÑıÐ´": 4650,
  "ĠÐ·Ð°ÑĢÐ°Ð½ÐµÐµ": 4651,
  "ĠÑĥÐ²ÐµÐ»Ð¸Ñĩ": 4652,
  "ĠÐ³Ð»ÑĥÐ±": 4653,
  "ĠÐ¿Ð¾ÑıÐ²Ð»ÑıÐµÑĤÑģÑı": 4654,
  "ĠÐ´ÐµÐ½ÑĮÐ³Ð¸": 4655,
  "ĠÑĥÑģÑĤÐ°Ð½Ð¾Ð²ÐºÐ¸": 4656,
  "heck": 4657,
  "ĠÑįÐºÑĢÐ°Ð½ÑĩÐ¸Ðº": 4658,
  "mobile": 4659,
  "ĠÐ½Ð°ÐºÐ¾Ð½ÐµÑĨ": 4660,
  "ĠÐ´Ð¾ÐºÑĥÐ¼ÐµÐ½ÑĤ": 4661,
  "ĠÐ¿ÑĢÐ¾Ð¿ÑĥÑģÑĤ": 4662,
  "keenetic": 4663,
  "ĠÐ½Ð¸Ð¶Ðµ": 4664,
  "ĠÐ¾ÑĢÐ¸Ð³Ð¸Ð½": 4665,
  "ĠÐ¼ÐµÑģÑĤÐµ": 4666,
  "ĠÐŁÐ¸ÑĤÐµÑĢ": 4667,
  "ĠÐ¿Ð¾ÐºÑĥÐ¿Ð°ÑĤÑĮ": 4668,
  "ĠÐ¸Ð½ÑĤÐµÑĢÐ½ÐµÑĤÐ°": 4669,
  "ĠÐ´Ð¸Ð°Ð³": 4670,
  "ĠÐ¾Ð¿ÑĢÐµÐ´ÐµÐ»Ð¸ÑĤÑĮ": 4671,
  "ĠÐ¿Ð»Ð°ÑĤÑĦÐ¾ÑĢÐ¼": 4672,
  "ĠÐ¿ÐµÑĢÐµÐ¿ÑĥÑĤ": 4673,
  "ĠÐ´Ð¾ÑģÑĤÑĥÐ¿Ð½Ñĭ": 4674,
  "ĠÐ¿Ð¾ÐºÐ°Ð·ÑĭÐ²Ð°ÑĤÑĮ": 4675,
  "ĠÑģÐ¸ÑģÑĤÐµÐ¼Ðµ": 4676,
  "ĠÑģÐ¸ÑģÑĤÐµÐ¼Ñĭ": 4677,
  "ĠÐ¼Ð°ÑĢÐº": 4678,
  "ĠÑĢÐ°Ð²ÐµÐ½": 4679,
  "ĠÑĦÐ¾ÑĤÐºÐ¸": 4680,
  "ÐļÐ¾Ð½ÐµÑĩÐ½Ð¾": 4681,
  "ĠÑģÐ¿ÑĢÐ¾ÑģÐ¸Ð»": 4682,
  "ĠÐºÐ¾ÑĢÐ¾Ð±ÐºÐµ": 4683,
  "ÐļÑĢÐ°ÑģÐ¸Ð²": 4684,
  "ÐļÑĢÐ°ÑģÐ¸Ð²Ð¾": 4685,
  "board": 4686,
  "Ð²ÐµÐ´ÐµÐ½Ð¸Ðµ": 4687,
  "ĠÑĥÐºÐ°Ð·": 4688,
  "teleev": 4689,
  "ĠÐ´Ð¾ÑģÑĤÐ°Ð²ÐºÑĥ": 4690,
  "ĠÐºÑĥÑĩÑĥ": 4691,
  "ĠÐ¿Ð¾Ð´Ð¿Ð¸ÑģÐºÐµ": 4692,
  "ĠÐ´Ð¾Ð±Ð°Ð²Ð¸Ð»Ð¸": 4693,
  "ĠÐºÐ¾Ð¼Ð¿Ð»ÐµÐºÑģÐ½ÑĭÑħ": 4694,
  "ĠÐ¿Ð¾Ð»Ð¸ÑĤÐµÑħÐµ": 4695,
  "ĠÐ¿ÑĭÑĤÐ°Ð»ÑģÑı": 4696,
  "ĠÐ¾Ð´Ð¸Ð½Ð°ÐºÐ¾Ð²ÑĭÐµ": 4697,
  "ĠÐ·Ð°Ð³ÑĢÑĥÐ·Ð¸ÑĤÑĮ": 4698,
  "ĠÐ½Ð°Ð±Ð¾ÑĢ": 4699,
  "ĠÑĥÑģÑĤÑĢÐ¾Ð¹ÑģÑĤÐ²": 4700,
  "ÐĿÑĥÐ¶Ð½Ð°": 4701,
  "ĠÑģÐºÑĢÐ¸Ð½": 4702,
  "ÐĳÑĥÐ´ÐµÑĪÑĮ": 4703,
  "ĠÐĲÑĢÑħÐ¸Ð¼ÐµÐ´": 4704,
  "ĠÐ´Ð¶ÐµÑĤ": 4705,
  "Ð¿ÐµÑĢÐ²ÑĭÑħ": 4706,
  "ĠÐºÐ»Ð°Ð²Ð¸Ð°ÑĤÑĥÑĢÑĥ": 4707,
  "âĪĪ": 4708,
  "âĪĴ": 4709,
  "ĠÑĥÑĢÐ¾Ð²Ð½Ñı": 4710,
  "ĠÑĥÑģÑĤÐ°Ð½Ð°Ð²Ð»Ð¸Ð²Ð°ÑĤÑĮ": 4711,
  "ĠÐ³ÑĥÐ»ÑıÑĤÑĮ": 4712,
  "ĠÑģÑĤÐ¸ÐºÐµÑĢÑĭ": 4713,
  "ÐĳÑĢÐ¾Ñĥ": 4714,
  "ĠÐ¿Ð¾Ð¼Ð¾Ð³Ð°ÐµÑĤ": 4715,
  "ĠÐ¿ÑĢÐ¾Ð¸Ð·Ð²Ð¾Ð´Ð¸ÑĤÐµÐ»ÑĮ": 4716,
  "ĠÐ°Ð±Ñģ": 4717,
  "ĠÐ¿Ð°ÑĢÐ°Ð»Ð»ÐµÐ»ÑĮ": 4718,
  "ĠÐ¿ÑĢÐ¾Ð²ÐµÑĢÑıÐµÐ¼": 4719,
  "ĠÑĤÑĢÐ°Ð½ÑģÑĦÐ¾ÑĢÐ¼": 4720,
  "ecraft": 4721,
  "track": 4722,
  "ÐĿÐ¸ÐºÐ°Ðº": 4723,
  "ĠÐ¸Ð½ÑģÑĤÑĢÑĥÐºÑĨÐ¸": 4724,
  "forces": 4725,
  "ĠÐ±ÐµÑģÐºÐ¾Ð½ÐµÑĩÐ½Ð¾": 4726,
  "ĠÐ°Ð½Ð³Ð»Ð¸Ð¹ÑģÐºÐ¾Ð¼": 4727,
  "panteleev": 4728,
  "ĠÐ²Ð°Ð¶Ð½Ð¾": 4729,
  "ĠÑģÐ¸ÑĤÑĥ": 4730,
  "ĠÐ¿ÑĢÐ¸Ð±Ð°Ð²": 4731,
  "ĠÐ·ÑĢÐµÐ½Ð¸Ñı": 4732,
  "ĠÑĢÑħÐ±": 4733,
  "ÐĺÐ´ÑĳÐ¼": 4734,
  "starter": 4735,
  "ĠÑģÐ»ÑĭÑĪÐ°Ð»": 4736,
  "ĠÐ½ÐµÐ¿Ð¾Ð½ÑıÑĤ": 4737,
  "ĠÐŀÑĢÐµÐ½Ð±ÑĥÑĢÐ³Ðµ": 4738,
  "ivers": 4739,
  "ĠÐ´Ð¾Ð»Ð³Ð¾": 4740,
  "ĠÐ¿ÑĢÐ¸ÑĩÐ¸Ð½Ðµ": 4741,
  "ÐĺÐ¼ÐµÐ½Ð½Ð¾": 4742,
  "ĠÐ²ÑĭÐ²ÐµÑģÑĤÐ¸": 4743,
  "ĠÑģÐ¿ÑĢÐ°Ð²Ð°": 4744,
  "ĠÐ²Ð¿Ð½": 4745,
  "ĠÐ¾Ð¿ÐµÐ½ÑģÐ²": 4746,
  "Ð°ÑĤÐ¾ÑĩÐ½Ð¾": 4747,
  "ÑģÐµÐ¹ÑĦ": 4748,
  "ĠÑģÑĥÐ¿ÐµÑĢ": 4749,
  "ÑİÐºÐ·Ð°Ðº": 4750,
  "ĠÐ²ÑģÐ¿Ð¾Ð¼Ð½Ð¸Ð»": 4751,
  "ÐºÑĥÐ»ÑĥÑģ": 4752,
  "from": 4753,
  "ĠÐ¿Ð¾Ð¶Ð°Ð»ÑĥÐ¹ÑģÑĤÐ°": 4754,
  "ĠÑģÐ²ÐµÑĢÑħÑĥ": 4755,
  "Ð²ÑĤÐ¾ÑĢÑĭÑħ": 4756,
  "ĠÐ´Ð¾Ð²Ð¾Ð»ÑĮÐ½Ð¾": 4757,
  "ĠÐ¸Ð½Ð´ÐµÐºÑģ": 4758,
  "ĠÐºÐ¾ÑįÑĦÑĦÐ¸ÑĨÐ¸": 4759,
  "ĠÑĤÐµÑĤÑĢÐ°Ð´ÑĮ": 4760,
  "ĠÑĥÑĤÑĢÐ¾Ð¼": 4761,
  "ĠÐ³ÑĥÐ¸": 4762,
  "ĠÐ¿ÑĢÐµÐ´ÑĭÐ´ÑĥÑī": 4763,
  "kickstarter": 4764,
  "Ġeval": 4765,
  "ĠÑįÐ½Ð¸Ð²ÐµÐ¹": 4766,
  "'.": 4767,
  "'\\": 4768,
  ")-": 4769,
  ")]\\": 4770,
  "-'": 4771,
  "73": 4772,
  "74": 4773,
  "76": 4774,
  "=\"": 4775,
  "AM": 4776,
  "AS": 4777,
  "CU": 4778,
  "Cv": 4779,
  "False": 4780,
  "IS": 4781,
  "In": 4782,
  "PT": 4783,
  "Pass": 4784,
  "Re": 4785,
  "Samp": 4786,
  "TA": 4787,
  "aa": 4788,
  "cr": 4789,
  "cv": 4790,
  "cri": 4791,
  "dc": 4792,
  "flow": 4793,
  "gu": 4794,
  "ger": 4795,
  "hdd": 4796,
  "here": 4797,
  "ial": 4798,
  "ks": 4799,
  "kor": 4800,
  "mus": 4801,
  "ni": 4802,
  "nprint": 4803,
  "ov": 4804,
  "pt": 4805,
  "pus": 4806,
  "rc": 4807,
  "rm": 4808,
  "ry": 4809,
  "ror": 4810,
  "utp": 4811,
  "ude": 4812,
  "vc": 4813,
  "za": 4814,
  "zxt": 4815,
  "Íĥ": 4816,
  "Ġ)": 4817,
  "ĠY": 4818,
  "Ġ//": 4819,
  "Ġat": 4820,
  "Ġput": 4821,
  "Ġans": 4822,
  "ĳĢ": 4823,
  "ĠÐģ": 4824,
  "Ð¾Ñĥ": 4825,
  "Ð¾ÑİÑģÑĮ": 4826,
  "ÐµÐºÐ¸": 4827,
  "ÑĤÑģÑı": 4828,
  "ÑĤÐ¸Ðº": 4829,
  "ÑĤÐµÑģÑĤ": 4830,
  "ÑĤÐ°Ð³": 4831,
  "Ð¸Ð¾": 4832,
  "Ð¸Ñī": 4833,
  "Ð¸ÑīÐ¸": 4834,
  "ÑĢÐ¼": 4835,
  "ÑģÑģ": 4836,
  "ÑģÐºÐ¾Ðµ": 4837,
  "ÑģÐ¾Ð»Ð¸": 4838,
  "ÑĥÐ»Ð°": 4839,
  "this": 4840,
  "thing": 4841,
  "other": 4842,
  "Ð»Ð°Ð²": 4843,
  "Ð»ÐµÐ¼Ñĥ": 4844,
  "Ð»ÐµÐ¶": 4845,
  "ĠÐ¿ÑĥÐ½": 4846,
  "ĠÐ¿Ð»Ð¾Ñī": 4847,
  "ÑĭÑĢ": 4848,
  "ĠÐ½Ð°Ð½": 4849,
  "ĠÐ½Ð¸Ð³Ð´Ðµ": 4850,
  "ÑĩÐµÐ³Ð¾": 4851,
  "ĠÐ²ÐµÑĤ": 4852,
  "ĠÐ²Ð»Ð¸": 4853,
  "ĠÐ²Ð¾ÑĢ": 4854,
  "ĠÐ²Ð¿ÐµÑĢ": 4855,
  "ĠÐ²Ð¿ÐµÑĢÐ²": 4856,
  "ĠÑģÑħ": 4857,
  "ĠÑģÐ¾Ð»": 4858,
  "ĠÑģÐ»Ð¾": 4859,
  "ĠÑģÐ°Ð¼Ð¸": 4860,
  "ĠÑģÑĥÐ±": 4861,
  "ĠÑģÐ½Ð¸Ð¼": 4862,
  "ĠÑģÑĢÐ°Ð±Ð¾ÑĤ": 4863,
  "ĠÑģÑĢÐ°Ð²Ð½": 4864,
  "Ð´ÐµÑģ": 4865,
  "Ð¼Ðµ": 4866,
  "Ð¼Ð¾Ñģ": 4867,
  "Ð¼Ð°ÐºÑģ": 4868,
  "ĠÐºÐ¾Ð²": 4869,
  "ĠÐºÐ¾ÑĢÐ¼": 4870,
  "ĠÐºÐ°Ð»Ð¸": 4871,
  "ĠÑĤÐ¾Ð¹": 4872,
  "ĠÑĤÐ¾Ð±": 4873,
  "ĠÑĤÑĥÐ¼": 4874,
  "ĠÑĤÑıÐ¶": 4875,
  "Ð²Ð°ÑĢ": 4876,
  "ÐµÑĤÐ¾Ð²": 4877,
  "ĠÐ¾Ñħ": 4878,
  "Ð°ÐºÑĤÐµÑĢ": 4879,
  "ĠÐ´Ð»": 4880,
  "ĠÐ´Ð¸ÑĢ": 4881,
  "ĠÐ´ÑĢÐ¾Ð²": 4882,
  "ĠÐ´Ð½ÐµÐ¹": 4883,
  "ĠÐ¼ÐµÑĢ": 4884,
  "ĠÐ¼Ð¾Ð±": 4885,
  "ĠÐ¼Ð½Ð¾Ð³": 4886,
  "ÑĪÐµÐ¹": 4887,
  "Ð°Ð»ÐºÐµ": 4888,
  "Ð¾Ð²Ð¾Ð¹": 4889,
  "Ð¾Ð²Ð°Ñı": 4890,
  "Ð¿Ð°Ð½": 4891,
  "Ð¿Ð¾Ð½": 4892,
  "Ð¿ÐµÑĩÐ°ÑĤ": 4893,
  "ÑħÑĢÐ¾Ð½": 4894,
  "ÑģÑĤÐ°Ð»": 4895,
  "ÑģÑĤÐµÐ¹": 4896,
  "ÐĲÐº": 4897,
  "Ð¾Ð´Ð¶": 4898,
  "ĠÐ±Ð¸ÑĤ": 4899,
  "ĠÐ±ÑĥÐ¼": 4900,
  "ĠÐ±ÑĢÐ¾Ð½": 4901,
  "ĠÑĩÐµÐº": 4902,
  "ĠÑĩÐµÐ¼Ñĥ": 4903,
  "ĠÑĩÐµÑĤÑĭ": 4904,
  "Ð»Ð¸Ðº": 4905,
  "inn": 4906,
  "incl": 4907,
  "intel": 4908,
  "ĠÑĢÑĥÑĤ": 4909,
  "ĠÑĢÑĥÐ³": 4910,
  "ĠÑĢÐ¾Ð²Ð½Ð¾": 4911,
  "ĠÑĢÑİÐºÐ·Ð°Ðº": 4912,
  "Ð³Ð¾Ð´": 4913,
  "Ð°Ð½ÑĨÐ¸Ð¾Ð½": 4914,
  "ĠÐ½Ð°ÑĢÑĥÑĪ": 4915,
  "Ð¸Ð½Ð¾Ð²": 4916,
  "Ð¸Ð½ÐºÐ¸": 4917,
  "Ð¸Ð½ÐµÑĪÑĮ": 4918,
  "Ð¾ÑĤÐµ": 4919,
  "ĠÑĥÑĩÐ¸ÑĤ": 4920,
  "ĠÑĥÐµÑħÐ°Ð»": 4921,
  "Ð·Ð²": 4922,
  "Ð·Ð¾Ð½": 4923,
  "Ð¢ÐµÑħ": 4924,
  "Ð¸ÑĤÐ¸": 4925,
  "Ð¸ÑĤÐ¸Ð»Ð¸Ð½": 4926,
  "ÐŁÐ¸ÑĤÐ¾Ð½": 4927,
  "Ð¾Ð¶Ñĥ": 4928,
  "Ð¾Ð¶ÐµÐ¼": 4929,
  "teg": 4930,
  "tect": 4931,
  "ĠÑįÐ¸ÑĢ": 4932,
  "ÑīÐ°": 4933,
  "ÑĳÐ´": 4934,
  "Ð°ÑĤÑĩ": 4935,
  "Ð¶ÐµÑĤ": 4936,
  "ÐĺÑģ": 4937,
  "ÐĺÐ½Ð°ÑĩÐµ": 4938,
  "ÐĶÐ²": 4939,
  "ÐĶÐµÐ»": 4940,
  "ÐĶÐ²Ð°": 4941,
  "ÐļÑĢ": 4942,
  "ÐļÐ½Ð¾Ð¿": 4943,
  "ĠÐ°Ð½Ð¸Ð¼": 4944,
  "Ð½Ð¸ÐºÑĥ": 4945,
  "ÑĨÐµÐ½Ð¸": 4946,
  "Ð°ÑĢÐ°ÐºÑĤÐµÑĢ": 4947,
  "ĠÐ³Ð°Ð»": 4948,
  "Ð¡Ð¾": 4949,
  "ÐµÐ¹Ðº": 4950,
  "ÐµÐ¹Ð·": 4951,
  "Ð°Ð¹ÑģÑı": 4952,
  "Ð°Ð¹Ð§": 4953,
  "ÐµÐ´ÐµÐ»ÑĮ": 4954,
  "Ð»ÑıÑİ": 4955,
  "Ð»ÑıÑİÑĤÑģÑı": 4956,
  "Ð¾ÐºÑĥ": 4957,
  "Ð¾ÐºÐ¾Ð¹": 4958,
  "ÐľÐ°Ð»": 4959,
  "ÐľÐ°Ð³": 4960,
  "ÐľÐ°ÐºÑģÐ¸Ð¼": 4961,
  "ĠÐ¾ÑĤÐ½Ð¾": 4962,
  "ĠÑģÑĤÐ¾Ð¿": 4963,
  "ĠÑģÑĤÑĢÐ¾": 4964,
  "ÑĥÑĤÐ±Ð¾Ð»": 4965,
  "ÐµÐ·Ð»Ð¸": 4966,
  "ĠÑĤÐ°ÐºÐ¸": 4967,
  "ÐµÑģÐ»Ð¸": 4968,
  "ĠÑĦÐ¸Ñĩ": 4969,
  "ĠÑĦÑĢÐ°Ð½": 4970,
  "ÐµÐ±ÑĢÐ°": 4971,
  "Ð°Ð¿Ð°Ð·": 4972,
  "Ð£Ð´": 4973,
  "Ð£Ð²": 4974,
  "Ð£Ð³": 4975,
  "Ð¾ÑĩÐµÐ¼Ñĥ": 4976,
  "ĠÐ²ÑĭÐ´ÐµÐ»": 4977,
  "Ð¸Ð²Ð°": 4978,
  "Ð¸Ð²Ð°Ð»ÑĮ": 4979,
  "Ð¸Ð²Ð°ÐµÑĪÑĮ": 4980,
  "Ð¸Ð²Ð°ÑİÑī": 4981,
  "ÐķÐ´Ð¸Ð½": 4982,
  "ĠÐ¾Ð±ÐµÑī": 4983,
  "ĠÐ¾Ð±Ð»Ð°Ñģ": 4984,
  "ĠÐ¾Ð±Ð¾Ð·Ð½Ð°Ñĩ": 4985,
  "ĠÐ¾Ð±ÑĢÐ°Ð±Ð°ÑĤ": 4986,
  "Ð¾ÑģÑĤÐ¾ÑıÑĤ": 4987,
  "read": 4988,
  "ĠÐ¿Ð¾Ð´Ð¾Ð±": 4989,
  "ĠÐ¿Ð¾Ð´ÑĬ": 4990,
  "ĠÐ¿Ð¾Ð´Ð½Ð¸Ð¼": 4991,
  "ĠÑħÐ´": 4992,
  "ĠÑħÐ¾Ð»": 4993,
  "Ð°Ð¶Ð°": 4994,
  "Ð§ÑĳÑĤ": 4995,
  "ÐºÑĥÑĢ": 4996,
  "stall": 4997,
  "uto": 4998,
  "ÐŃÑĤÐ¾ÑĤ": 4999
}